Conv_30_param_0 19591.767578 193.676849 165.656265 182.566528 2409.634277 701.346497 656.613037 1997.294189 435.709015 106636.117188 336.547272 3885.748047 281.577820 845.110229 69426.000000 74667.570312 25186.542969 169883.328125 6433.573242 350.684509 270.865631 637.349792 211.300858 125046.070312 688.825195 310.239166 919.601440 226.213516 857.066956 407.342743 184.366867 2256.263672 
Conv_48_param_0 206.731186 45.049400 25.154654 43.326984 15.246521 18.516155 11.379239 15.855560 25.792578 17066.537109 104.549713 17.920185 31.479940 43.494095 25327.173828 19520.998047 1624.713989 7428.059082 4.550652 76.983917 38.822681 50.401443 159.771179 11650.508789 94.647133 14.320689 15.978853 129.523941 69.195969 197.458099 169.807251 26.109295 
Conv_52_param_0 173.125244 173.843307 171.388138 284.353607 163.994720 219.197357 168.402054 214.056808 221.489899 147.925842 123.893944 171.689835 215.090805 226.259918 120.307991 190.041306 
Conv_67_param_0 358.989075 512.620850 1719.952759 521.097107 1047.559937 1073.803223 687.462891 748.168884 311.634918 1086.371704 302.252838 681.172974 3453.027344 2365.708252 1265.769531 397.076080 622.825989 560.001465 447.660614 1055.572144 581.772522 648.971558 2614.638916 2114.621094 782.677307 267.178406 980.637634 394.095123 712.943604 1532.003784 367.191406 2147.540771 1018.432556 632.307617 386.390167 819.688416 254.452866 426.193451 1735.259399 461.558624 344.422638 494.042664 1407.098755 965.586609 1000.950684 491.646210 546.006470 1104.012451 1004.609619 7369.645020 265.308441 392.328003 260.860840 676.194336 270.013824 1162.302246 329.478577 596.498169 1271.320679 843.401489 429.863434 485.356354 1358.948364 1119.973022 385.571808 931.632324 1464.157471 426.976837 737.561584 1084.599365 714.981262 305.633698 6086.556152 465.397827 1527.597168 639.473145 555.078430 342.781647 1130.726318 504.876953 278.293488 472.772858 617.481995 369.020355 405.861877 268.994019 1143.951904 268.970673 289.960022 1418.419556 3021.187012 258.928070 271.248627 203.735596 523.435913 1079.949341 
Conv_71_param_0 261.657135 220.115662 50.969196 217.419983 97.518700 109.813995 309.063904 104.529289 285.187866 50.197193 349.795929 205.258133 22.386374 46.081108 57.665359 306.713837 184.834579 221.517990 123.567497 140.976959 178.639114 109.693443 26.029173 24.233284 81.068390 448.487671 113.266090 96.479309 238.223969 28.824884 248.660614 85.806435 83.383171 355.749664 452.616272 91.264885 582.064453 336.073120 32.338097 428.519562 307.735352 259.997650 89.320137 82.285797 75.261475 305.808502 119.542130 77.133507 57.291180 8.452525 277.163544 373.891479 81.390907 250.528931 530.747681 30.818630 320.582977 140.278000 96.998596 138.386536 349.809387 267.047516 22.592493 129.170486 206.337143 44.421185 75.362495 354.179443 166.984985 84.392464 431.599854 216.211700 21.470398 365.780548 79.051643 248.065170 189.402802 622.957397 58.563145 87.456078 183.262833 487.101715 202.465271 325.970337 192.241669 242.857666 52.717716 398.140991 462.030731 56.721695 14.139255 203.348495 638.026550 1393.321411 238.765915 88.095978 
Conv_75_param_0 216.156540 223.038483 219.683304 219.023758 270.314606 227.213013 244.416473 193.187851 201.401703 180.396347 254.307861 187.586609 158.666550 177.255219 171.326889 174.688095 194.577637 177.551086 222.524948 252.592117 235.427231 200.776352 300.716278 153.210953 
Conv_90_param_0 312.489868 1408.478027 879.579102 757.707581 1420.387573 799.797546 724.689453 617.684814 733.409058 818.169617 868.023560 710.670105 1230.692383 916.437012 883.287292 571.438354 628.737305 781.178345 1233.527710 912.292419 1323.824707 1329.211548 692.497192 701.756592 892.709717 981.756287 1035.485840 737.167175 793.957275 1359.297974 1269.055908 1123.835083 763.930481 880.319702 497.674652 875.176392 752.653442 547.137329 760.502258 525.776978 609.582458 1375.785400 1863.962891 880.477844 1691.959595 826.633545 2280.437012 606.966980 671.684143 309.420654 657.225403 608.080872 647.187012 1324.328979 961.938538 834.404602 659.047424 1193.592651 746.247253 948.212280 729.209045 902.950073 626.212830 1270.398315 612.127258 743.448303 494.939117 2038.675659 672.738892 687.880676 726.897400 687.826904 1136.352783 1526.461548 1089.425415 612.383850 815.230530 816.730774 746.755920 1448.806885 1322.688721 1212.805054 752.828064 1324.278809 1512.215698 498.200348 656.607727 1578.076660 1343.423584 985.719299 1246.348267 1269.889526 473.717072 845.885254 992.992981 1714.555176 1493.246094 3871.113281 521.942261 389.976440 521.377563 712.204834 727.633057 959.071960 759.068237 590.927124 1777.502441 1034.944946 1025.629761 457.718262 8978.685547 427.692444 964.135193 701.663818 1725.567383 1447.959473 1149.936157 602.469482 785.792786 902.715088 1714.840454 1442.437256 1217.265381 1502.282227 510.109711 642.516479 1228.876587 536.054138 1611.332520 405.547668 906.586975 1009.532532 615.531677 594.522949 584.696838 710.347229 819.943665 825.901489 2440.428955 1154.423950 918.997864 910.082153 1017.437378 1192.313477 
Conv_94_param_0 146.953140 43.879593 46.165115 52.436047 109.935326 43.298912 85.280075 96.520447 43.587273 41.306606 68.226120 66.520332 60.883778 54.260460 130.920334 111.732666 102.148560 35.418873 42.549065 44.297611 55.730049 25.491795 83.327446 49.237820 90.082550 38.898567 43.649521 99.110031 79.711525 38.746300 26.366983 84.327324 37.701939 70.146858 67.856361 35.199612 46.189640 78.931419 31.327019 35.591282 98.128464 37.914829 22.121599 71.964508 35.973198 56.781010 26.922186 103.773636 177.924973 90.541649 49.300655 73.932854 78.190468 46.799347 85.868980 47.266830 116.003654 138.489273 207.785919 68.232224 51.236511 75.911308 325.304169 97.986160 46.239449 43.820045 94.285309 21.796198 62.404415 56.270206 63.895203 32.591393 84.629745 51.034756 115.591972 129.575867 57.438576 27.908539 99.966660 51.820633 82.608658 48.153393 48.238945 78.413780 31.562351 81.711205 53.800613 39.134403 53.989887 155.497025 23.174059 84.277466 40.620697 44.694450 34.494701 35.019695 46.330997 13.452175 51.136806 184.106735 68.247025 660.485962 83.500000 134.971924 29.903963 49.067490 71.562973 90.798813 79.349876 38.253407 30.704529 123.479301 85.861572 71.109863 30.141922 28.343269 129.595169 47.100784 53.489922 30.540747 41.851013 51.872570 41.866985 22.250355 107.288658 55.146820 58.323952 110.249161 49.403389 60.761028 49.803959 92.609947 21.701761 75.732056 39.822693 97.024254 43.987610 94.112015 32.984905 62.203899 35.515270 207.908203 33.904533 60.815636 
Conv_98_param_0 191.786392 154.647079 201.064331 160.171295 141.013824 191.634903 132.099670 212.902298 149.938156 225.589859 195.694565 249.515732 166.352188 152.233826 144.893463 150.710373 244.998642 185.849335 239.275314 206.448151 166.644470 144.447495 109.276985 141.238586 
Conv_114_param_0 579.891602 3166.858887 1316.338379 1142.762451 1118.181152 1969.089233 1235.894043 546.122742 1325.512817 1032.708252 990.389771 891.444519 1293.041138 747.807251 1210.765381 1232.245483 930.230774 1006.427368 799.942871 866.588745 651.889343 1289.551270 893.579834 1091.035034 641.059998 1254.105835 2930.114990 843.574951 1237.476929 911.795959 1120.415894 880.499146 1451.111328 874.504517 691.664246 700.768372 758.435242 944.257507 686.472900 730.725342 918.168701 549.334351 698.121765 1264.493530 665.070251 1145.351440 1511.032471 747.931946 1026.169678 988.805359 662.219360 796.674683 839.750061 504.220795 669.754822 1077.928955 888.094360 1206.501709 963.948181 1523.955811 996.071106 953.310059 6504.384277 4963.388184 719.089355 1261.194824 899.423523 1013.483276 557.749634 1009.702576 1769.805176 759.769470 625.991638 1145.973389 904.691711 482.596985 1399.078613 1085.561035 1005.567810 2348.177246 1260.440063 2375.595703 3549.763672 782.033691 1228.977661 1485.901489 986.011719 1117.891357 462.148621 386.094238 719.648071 752.366089 1258.608521 850.162109 656.865051 3523.023682 1097.110474 1759.815918 1893.555420 935.997925 1342.699829 4813.158691 957.846008 1343.835205 911.623596 718.421753 2980.551270 6167.909668 1574.065186 672.083618 4866.233887 1068.750488 1049.154907 723.634644 1248.871948 3937.241943 1745.621094 1018.988647 1769.720215 1426.763550 3229.324951 688.208008 2573.794189 852.104370 1067.076904 870.157227 996.899353 1956.176880 894.717957 861.250366 667.139099 1089.679810 412.498199 1264.486206 1268.585327 2578.686035 1029.854126 672.355469 438.461212 1343.433472 1762.737549 910.358521 1105.245117 781.716492 
Conv_118_param_0 309.359894 59.501995 203.404358 149.581299 174.239166 92.231094 349.947601 377.187622 199.357605 143.501450 117.327339 118.421341 215.454239 83.288300 128.145203 157.410156 253.427383 313.312927 208.596985 95.070984 162.991806 151.609528 144.492569 155.281631 337.354340 80.613190 55.339272 370.880249 88.320251 92.774864 189.204163 133.603195 110.617653 203.387939 134.088425 208.193909 378.543488 259.240143 221.572144 144.054901 104.059883 107.853127 89.777260 245.979309 194.751114 179.458725 198.882629 198.199600 115.349449 230.626663 237.326263 126.993401 104.028183 121.492966 310.743988 117.884995 221.668365 204.528122 299.932098 63.517986 252.226929 189.753860 24.525394 30.432507 231.269318 101.578362 192.823502 321.582245 213.681351 125.312569 140.270157 256.634827 276.303680 140.547363 66.288681 227.680618 210.635529 200.499283 95.867889 73.860184 130.241791 59.619564 83.219566 100.478783 160.030258 143.297394 287.820770 128.627411 436.091736 100.288139 134.191086 333.574799 149.861023 112.674156 173.860931 45.071812 216.190659 115.014877 88.587708 191.176941 132.827438 38.496410 166.959732 143.276794 85.275970 196.778000 117.774948 33.614132 108.737206 295.735779 50.706993 154.376114 213.881271 245.791168 56.859924 32.430748 149.996567 262.578979 82.285950 124.438431 46.359131 332.395081 78.390152 320.818512 323.989227 160.237045 180.520081 115.555832 136.016800 135.710449 363.296875 70.017410 384.887177 117.260445 207.637436 76.806091 253.016846 128.253998 440.374512 174.095093 116.604164 249.147003 248.101746 209.663483 
Conv_122_param_0 191.293991 242.131866 263.425323 243.594299 266.902374 141.502853 220.280212 179.706024 203.321884 214.880844 275.858002 252.396973 232.435059 197.599350 268.736267 248.095154 268.779114 201.544174 229.466949 194.494949 283.828308 222.225876 196.136200 203.182846 226.804230 247.631485 243.024811 191.655945 227.525909 256.253693 183.530655 265.351868 
Conv_137_param_0 1235.092041 1233.251953 2122.568604 1168.065308 807.587708 3983.967773 3491.532471 1103.533081 943.574097 900.805725 3386.279053 595.587036 1811.042358 2316.968750 1062.996460 901.388123 1304.620361 1868.571167 1989.661621 2026.772339 2382.841553 821.671143 1549.083008 1261.301758 1035.875244 3603.154297 1023.141113 1537.967041 1672.532471 1168.968018 1229.008911 1685.883911 1160.316772 1469.287109 1517.550049 2947.912109 3283.942383 1691.182007 2319.831787 2083.656738 1016.807129 1256.338867 4171.310059 2176.836426 1831.717896 1428.102051 2146.193604 2523.942139 4452.475098 1174.273438 1561.681030 1931.800903 1461.563965 798.786194 3145.875244 4203.068359 2608.783203 1175.910156 2301.735840 1179.800659 2697.130859 1053.204956 2240.736328 2882.995605 707.526367 2572.307373 1781.554810 3382.078613 968.268250 554.600342 2102.265625 1235.974609 673.225281 940.419983 1079.882202 2318.362305 2805.693848 1449.999023 2279.961426 1440.147827 761.120972 1173.745483 1475.515381 733.800964 874.929260 2000.789185 2123.128418 906.929138 1129.705566 2411.725586 1282.094727 2591.117920 1710.504028 1300.363281 831.375122 1511.790649 1019.629211 2306.824707 1912.567383 1897.701050 1031.835205 1771.245117 1889.201782 1668.453491 1627.270020 1259.633911 1170.733398 774.322876 1944.679810 1525.776489 2197.372314 2196.381348 627.742554 2261.773926 2422.498047 1831.905640 609.674194 3246.801270 2587.246338 1891.781982 1431.589600 1873.217041 1354.205688 1230.978149 816.788391 2449.647705 1186.112305 1824.341309 1630.750732 1552.528198 1737.200317 1661.031860 1378.605469 3573.228271 3490.795410 1325.234985 3861.469727 1706.838135 1132.332642 1186.109253 1143.552002 1105.749390 2318.675049 1118.953857 2843.000244 913.652344 1137.572021 2357.956787 2261.793457 2054.019043 2594.981934 2023.340454 1600.147339 1285.212280 2031.869873 668.826416 1342.638916 1592.025635 1305.968994 1612.797485 1892.332153 1897.019531 1270.549683 1097.620483 2596.210449 1387.756714 867.554016 807.374329 991.183350 1826.406372 1057.622314 2763.796875 1370.776489 1845.111938 1251.982544 1219.808472 1912.893188 1316.601562 808.479431 1476.083618 1649.295288 1040.872925 2007.768555 1879.358887 1350.433228 1572.362183 4652.349609 3486.040039 2777.984619 987.845154 1480.535522 825.068054 
Conv_141_param_0 41.382816 94.971176 57.360153 129.776718 80.116440 27.937418 53.603954 79.511665 304.498749 83.294502 35.632332 36.407665 45.301430 80.753143 34.804752 137.536438 39.483059 59.408966 71.863220 68.151253 29.745007 56.344444 47.408169 72.120728 76.463936 27.308630 60.851170 149.834625 57.104931 112.525246 234.144073 71.461327 28.166832 23.616762 78.026291 33.567451 44.596794 35.472904 64.955032 76.134445 125.367340 60.812794 21.483192 74.518951 57.994881 65.501312 39.665012 76.755775 24.605946 83.735626 64.508430 54.294891 67.394554 74.336449 23.789679 30.286844 32.705597 42.946720 67.455185 96.302773 23.900999 49.144012 53.453949 37.102562 405.808197 45.890278 56.096714 48.730526 51.525955 83.597099 43.364140 41.864799 279.902649 419.768127 232.369736 35.233131 44.278206 60.864326 102.150352 52.758148 132.563171 203.391647 79.949905 55.715424 74.678406 205.033066 123.607010 91.420509 91.988541 46.432442 117.245125 21.357742 77.677124 55.943958 206.526123 76.866768 69.402542 30.707592 60.961201 52.610073 74.142754 47.238537 200.588165 65.888420 54.079212 142.983337 138.911163 108.889877 80.315277 50.867813 144.482773 57.644985 115.778381 46.113968 84.126701 63.379009 120.264458 67.340240 26.417448 59.073708 64.329819 53.664494 75.827652 61.551659 61.886890 48.760601 168.714310 52.920143 101.139313 40.265308 49.253738 68.525002 69.653954 29.315201 39.008121 23.683126 25.810213 55.600925 68.794128 111.666077 94.701065 128.774277 74.715240 67.676712 47.112328 50.515137 77.229637 44.036243 49.731567 54.512508 35.478851 49.854568 50.314056 76.882820 67.392509 44.683659 60.441650 63.150284 71.000511 68.448090 45.198730 28.017353 46.875446 46.384518 51.541210 63.924591 94.753174 80.906029 63.801926 35.792816 187.474686 42.730324 42.807903 38.916069 348.341522 97.251579 55.456726 70.745445 58.712967 58.557575 54.022446 98.291405 58.741135 53.479740 88.408783 48.727951 24.340139 29.793993 44.581417 84.521561 90.861450 111.744934 
Conv_145_param_0 262.444427 302.349731 259.300079 288.827667 215.038391 276.679138 180.300964 246.631348 295.030701 226.753326 187.831161 380.207886 366.432007 273.145996 247.617584 248.910233 156.113983 252.380707 350.250183 168.726166 239.049438 421.246582 325.447266 161.557693 253.159760 274.731903 252.041061 180.667221 265.931366 168.357971 295.482300 226.481430 
Conv_161_param_0 2342.804932 3615.068359 4153.169922 11035.560547 2772.106445 979.718140 36388.335938 1221.710571 1172.483276 2620.112549 1519.868042 1105.058838 1694.612061 2222.802490 2103.730469 1916.815063 2966.851562 2900.023438 1181.859619 1641.062866 3338.885254 1156.700317 1417.447998 2603.356689 2308.279297 2047.787964 1563.548218 5661.956543 3813.314941 3444.004639 1665.199707 2882.255127 1779.897339 1429.240845 1387.807007 1029.945557 2090.101074 2211.644531 960.212708 2375.193115 2091.275635 2279.894043 3249.100830 3780.990723 1796.679443 1106.221802 2308.535645 1835.876343 1834.417847 1637.874634 1558.301392 945.248962 866.502014 1917.807495 1378.279907 1396.457886 3092.694824 2921.663086 1374.739258 1325.139648 2872.453857 4852.935547 5418.296875 2282.227783 1493.114868 1705.569702 2117.436035 1759.897217 988.174683 1967.459717 1464.917358 1563.996094 1642.504395 1246.341431 1746.976318 4120.002930 3221.005127 1102.379272 1373.947021 1520.392090 1299.357666 1766.359863 2196.679443 1556.804077 1426.571777 1421.464844 1371.421997 3367.307373 2124.493408 1946.454590 1607.365967 2783.867432 1337.022827 1584.793335 2228.900391 1778.536011 1459.891235 2524.966309 1949.865601 4018.938721 1831.025879 4269.671387 1842.499878 749.720337 2811.765137 2217.487305 1111.421875 1377.218262 2141.482422 1739.821289 1719.572876 1601.926514 1287.799438 1791.113037 1804.041626 1870.883911 3391.079346 4872.917969 1695.176270 1167.345093 3091.472900 1216.684326 1725.132812 3265.834717 1476.461182 2126.220459 1656.163574 1979.756226 1456.170166 1838.665283 1694.760986 2709.771973 1194.543091 1671.139038 2369.433838 3703.532715 1794.795410 1590.275391 3313.527344 1385.189941 1725.931885 1720.196899 1574.602539 1481.121826 1231.227295 2123.140381 1692.769775 1457.852051 2229.662109 1136.280884 2072.356445 1441.880615 1280.518921 2191.337646 1670.632324 1196.588867 1790.468750 2699.325439 1621.704468 2622.347900 1421.712769 1973.557251 2455.711670 1500.727173 1329.605591 2296.282959 3587.676025 1817.734741 1784.964600 2274.103516 2326.605713 2540.681885 1123.520508 1186.870239 1588.097900 1653.328979 2513.103760 1648.215332 2566.670654 1564.181396 2337.415039 1643.059204 1966.212158 1385.348389 1434.632935 1948.542603 1771.733643 1941.963989 2152.326904 1890.367310 1373.123047 1825.757690 
Conv_165_param_0 82.356339 38.873848 74.311020 11.910538 176.326981 162.957687 4410.994629 174.817963 92.962708 69.597328 189.295837 112.357285 117.461082 79.889893 71.896782 55.546829 34.071671 50.657715 181.348846 110.700218 46.241859 53.031898 111.925140 48.686337 50.023182 72.360748 239.690094 41.410023 67.041313 118.313774 181.933182 42.795628 86.182091 175.598740 82.557732 111.034424 50.397861 92.124886 210.307739 61.898338 20.047945 77.342949 52.579956 40.848740 79.551575 177.610809 28.264750 56.749878 93.619896 96.237236 133.330231 133.382095 250.614090 112.523956 52.431408 100.790260 70.393890 53.356831 123.315834 82.541763 49.360134 25.674665 35.244267 84.031952 267.995514 31.558933 89.034897 156.295120 160.850296 75.359619 61.146244 68.572380 127.855515 57.201691 59.138821 25.784582 39.506832 174.731949 89.487106 57.500740 35.304195 100.947487 71.337524 66.121323 86.776001 465.601898 103.596413 51.153378 88.614281 60.694107 98.918282 45.041794 85.865791 82.361855 75.791183 34.176254 79.716743 98.952942 32.579533 31.837299 94.134705 50.574196 61.985767 64.773781 41.981670 134.226532 103.780289 127.273872 100.829147 34.744228 52.411873 200.985886 55.356998 59.164532 88.155624 66.427292 35.411793 47.648445 53.318943 68.524406 59.627071 63.445908 114.610542 39.218964 62.509190 61.699818 239.350433 62.234982 128.334839 43.308842 115.170509 79.027191 58.595322 66.831444 146.162109 43.618774 57.096085 106.842850 28.401104 74.563911 46.742332 124.387184 65.137833 151.990555 108.100510 80.969139 63.410854 232.005920 42.530617 82.877907 109.817322 52.167149 197.321976 95.687782 116.984856 61.854141 119.555504 60.557583 39.367725 26.834272 119.888840 72.752983 76.178543 58.104492 153.126068 61.021210 63.062855 78.649139 77.905281 59.153183 24.285360 44.528023 252.014709 58.100483 60.780003 86.566246 71.413353 18.637226 51.407322 450.715332 53.104919 156.581589 79.872574 101.689003 238.123703 129.396591 171.337265 81.492477 51.626499 116.739052 93.852295 98.754295 
Conv_169_param_0 205.809235 237.447342 210.574539 295.298798 220.799423 186.167221 179.015991 231.122635 254.942047 185.660843 135.961823 337.821838 336.518677 296.412109 279.727631 217.388062 150.000504 216.474823 300.449280 156.404922 207.972687 183.030685 241.099930 200.293991 171.621902 140.755157 168.788940 219.915421 201.828857 172.828415 163.524963 173.226608 
Conv_185_param_0 730.302246 1439.798706 2166.588867 1000.207214 2281.890381 2565.609863 2105.245850 1416.397705 741.703918 823.258728 1429.967651 1047.966553 1679.008423 3473.220215 3469.587158 1129.556274 1618.190308 1123.496094 2262.324707 690.709167 990.934875 1479.959839 5758.767090 742.720398 1096.482544 2877.739746 1340.551025 960.555176 1097.850586 944.844360 1081.042847 1127.760864 1316.577881 1159.781250 1350.652222 2182.947021 1193.545776 1187.500122 868.396606 1123.167725 1962.618896 2363.345215 1236.868774 820.397583 1162.069092 1821.327148 935.959595 963.331909 1952.747192 1517.666748 688.196350 1110.424194 1680.628906 1921.722290 910.118286 2135.477783 1369.539062 966.306641 1331.006836 1478.909180 1813.404541 3001.207031 1129.069336 1304.587036 1769.916992 1149.261475 1757.530273 1537.754272 1101.928711 1279.827881 844.362976 837.415771 1132.539551 1516.487061 893.334595 3509.976074 5022.892090 1366.585083 3686.554932 859.990051 1654.178101 1076.514893 658.928894 2658.629150 1138.799316 4221.682129 1641.039673 1219.367188 1212.570190 1090.215210 1374.730103 1494.297852 943.624084 1037.242065 1903.223022 2765.884277 1066.254761 911.371704 1042.836548 695.288208 687.515747 2367.369385 1004.916626 1585.712524 1504.156738 839.689331 1791.143799 1800.407837 1072.986084 1956.082153 1978.750000 1826.841309 1142.429077 2114.666748 966.448242 1349.210693 833.264587 1163.828857 3121.044434 975.955872 1438.208862 1178.759155 1110.456299 1872.502563 1719.361816 923.248047 2136.059326 1363.754395 1398.870850 1036.087524 1056.627930 1514.678589 1242.958496 1478.634888 1027.920288 2004.235474 807.800232 1159.064453 1290.666992 1751.508789 1679.223145 1687.591309 1984.861938 1082.880981 1058.155029 1513.738525 756.846619 1112.390747 1332.480347 2985.151367 999.504578 1059.488403 1403.109253 1347.290039 1734.793945 1707.443848 2053.329590 897.502258 3115.322998 1654.354614 1046.169067 890.429626 1342.697144 1338.446289 1617.774414 846.623718 1119.950439 1087.523804 1437.109985 1496.972168 783.768250 3021.539062 1445.701172 816.259277 898.573364 1056.399170 713.455444 1342.725708 857.177307 1049.870239 1782.486206 509.632141 1365.451660 1309.352173 1564.724731 1478.441284 1404.648315 2481.506836 1455.763184 1295.104126 1144.766602 1068.140381 
Conv_189_param_0 467.548157 300.618744 103.099220 192.070877 177.918793 153.408981 189.851410 206.512589 428.244446 275.146790 186.987183 212.047043 225.966751 117.595627 147.843689 315.229553 194.492630 140.362671 116.949150 380.257385 206.588837 312.394592 58.701805 191.028885 260.279419 70.730576 206.288956 294.283173 258.789124 233.359222 261.015656 241.044098 213.482498 150.825195 322.835815 104.987419 187.797684 179.037872 278.630585 274.043610 245.861343 84.346115 133.323578 261.691681 224.850143 83.407326 195.239914 214.239319 182.426666 248.231979 398.444244 301.653473 159.985291 182.037949 428.475616 221.507675 265.415314 209.490753 198.624390 280.119293 217.162460 54.135456 377.723785 121.023201 241.167740 287.669128 244.889954 138.479080 189.033646 389.221252 172.505966 414.077057 228.927017 204.005493 225.736542 143.950165 41.487621 163.386200 69.558365 209.547913 170.990723 202.441650 448.217529 81.356926 313.594391 64.024231 231.921066 234.841064 258.053040 217.509995 234.283524 187.567047 447.191162 184.955673 172.844574 69.279762 230.484192 425.898193 189.660355 327.816467 307.697266 179.364075 127.303711 244.714386 128.595474 385.914673 215.845947 179.800903 135.231445 207.754135 161.063553 200.175613 283.331848 139.316101 234.277130 343.040161 650.105896 211.703171 94.750748 167.404602 207.462158 201.318115 216.856171 366.857300 235.177261 381.783173 253.309814 264.229919 330.004700 200.342010 201.282898 87.281517 247.796783 208.321274 175.523727 153.112762 353.135223 363.342438 204.857315 85.301254 237.024323 82.736206 83.215179 204.399002 139.028687 226.837280 449.362640 198.459076 130.955490 77.822723 142.061325 308.662872 231.294983 129.022430 187.930389 200.057144 105.650635 189.812088 160.768158 297.416870 204.396332 210.052780 214.010773 214.978531 209.378540 184.560059 98.208252 228.049622 373.412842 228.754395 270.016785 77.809822 133.767151 404.901581 412.282135 171.665558 264.678528 207.507126 247.423172 363.917999 234.647720 335.607361 315.514252 233.018951 278.128601 388.437622 218.207047 61.103767 216.241516 207.239639 169.280457 108.434685 
Conv_193_param_0 347.398041 226.670898 322.962158 302.564850 279.223572 239.660843 341.821747 248.255035 348.118439 305.320770 344.166382 310.690491 321.225372 267.917175 334.263763 295.901764 327.048340 359.791626 352.323517 250.120346 228.377258 189.725388 320.571472 266.498840 345.813660 318.935181 312.679779 255.585815 316.610962 347.067169 314.564270 294.727631 317.391052 339.892334 313.035675 237.333771 318.873383 264.325867 314.368774 295.129303 277.668488 244.915802 342.451630 242.183273 268.162689 287.370575 284.055664 194.196640 342.421021 337.452118 314.391296 339.476746 250.000748 276.333954 298.928406 317.489105 377.537140 335.322083 304.484253 305.400177 293.023590 358.960083 293.782501 273.078827 
Conv_208_param_0 3318.346924 3166.281250 1637.094849 3568.310059 962.994690 2179.340820 1358.522217 1205.958008 3520.689697 1149.859375 1923.101807 3021.227783 2788.719238 1427.693604 1532.995972 2249.968262 1634.692993 1958.640625 1885.340454 2061.655762 3068.760742 1595.105835 2493.122803 2043.006470 2879.762207 2270.549316 1737.228882 1562.643677 2146.924316 2214.204346 3000.626953 2619.854492 1680.000854 1721.983887 1260.646362 1152.204346 1616.011597 4457.650879 2751.409180 1605.171021 1462.683472 2722.403809 2109.017090 3651.100098 1798.930420 1771.695435 2585.228027 2475.804443 1493.837769 1358.349365 1851.536011 3493.732178 2255.134521 1105.921631 2044.326050 2050.179443 1131.361084 3377.451904 3142.827637 1836.355469 2766.671875 2630.444824 1438.357178 2082.869873 2662.506592 1040.204468 2580.224121 1841.062988 1768.489868 1437.417847 1506.037109 2322.945801 996.712463 2359.101074 1688.638062 2807.658447 1552.120483 1349.812866 1740.830078 2195.507568 2757.393799 1803.183350 3007.140137 2281.510742 3562.821533 1271.483643 1524.050659 951.487000 2220.755859 3618.335693 3155.883057 2836.218506 947.213867 1785.127441 2888.156738 1988.468140 1451.320190 2348.436523 2029.271973 1131.935303 2246.038574 1433.967529 1854.116333 3291.295654 924.937927 2075.290771 1476.523560 2036.592651 1625.062988 1082.971436 3836.489502 2312.237549 1229.757690 3288.188477 2443.135254 2691.882080 4785.974121 1905.685425 2669.117676 2158.205566 1911.464600 2635.413818 1650.248901 1487.289551 2948.551270 1114.313965 3757.515869 1434.038208 2505.752197 2375.467041 3087.968262 4307.010742 7037.397461 1808.633179 1678.386353 3093.420898 5227.697754 2215.587158 1597.660522 1207.852783 3800.827148 1530.699585 1368.324829 5582.956055 1952.085938 1527.002441 2319.223877 2706.091064 1481.081299 1646.458130 1711.586304 1756.859131 1878.334106 1634.796021 1644.748291 2036.390747 1907.835083 1458.573975 2213.672607 3556.224609 2262.153320 1422.196655 3217.259766 2224.859863 1876.574341 2497.464111 2236.530029 4341.152344 2271.930908 1740.200317 1954.179077 1695.337646 1274.045532 1499.865845 6498.260742 1688.894897 1994.275269 1549.059570 1530.316528 1591.172974 2511.952637 1292.134155 2761.653809 3252.634766 2186.941650 2395.573242 2871.372314 2742.640625 1419.733643 3166.617432 2026.217163 1830.616211 1743.816772 3541.979980 1442.189697 3056.085449 2678.656738 1779.407959 1707.321289 1392.028320 3016.480225 2938.258057 2741.561035 2832.689941 2246.827637 2113.784424 4122.042480 3139.463623 2284.693359 2162.972412 3242.123047 2619.312988 1306.440308 1273.468018 1966.412842 3024.167725 979.766541 2089.736328 1351.867798 4323.602051 1268.910400 2909.700928 2418.730713 937.037842 1748.989502 1435.344727 3585.728027 1437.314575 2086.651855 2556.180420 854.660767 2165.013428 2038.007935 1895.432373 1447.469604 968.788086 1816.863892 2412.284424 1694.248169 1879.008789 1833.977173 1931.496460 1942.730225 1862.236572 3730.125000 1704.931885 1993.484619 3226.148438 3980.141357 2208.943604 2848.189209 1743.993530 3796.174561 1842.759766 1166.529907 1926.150635 2294.629883 1412.658569 2605.824951 1167.318481 2077.427979 2681.652100 1148.282471 3209.546875 1936.620728 3529.068115 1950.304077 2057.145508 1176.442017 2593.472656 1317.879883 2644.645020 1750.615845 1427.208862 2552.293457 1831.594482 2531.299316 3289.536865 4649.381836 2642.684082 1736.566772 1744.678955 2228.914551 3468.419922 1562.565308 1092.635376 2679.088867 2009.701050 1976.295288 5442.442871 531.698853 2040.601196 2834.376709 2662.192383 3600.636719 2161.648438 3636.416992 3243.697266 1099.478149 2199.911621 2023.909790 2862.205078 2442.695557 1938.680176 1305.960693 4139.083008 1509.166260 2984.207764 2670.366455 2191.136963 1741.588135 1304.845337 2407.947021 2809.205811 1209.672485 2117.821533 1201.506226 2207.143066 1420.418701 3099.218262 1076.841064 2276.107178 2255.722412 2183.812012 1549.143433 2558.907227 1614.038818 2773.060547 2624.802002 2304.489014 2308.905518 1491.200806 1292.945312 2295.784912 1673.721924 2613.753418 2107.295654 2342.226562 2074.431885 2337.947754 2706.214355 5663.031250 1673.756836 1202.569214 1514.073120 1588.181885 1523.472534 885.478455 2711.586914 1730.300781 2316.003906 1576.314087 1792.601562 1662.557251 2992.079834 1665.159912 2369.736084 2268.083496 1613.485840 623.863464 978.542664 1459.972168 2648.310547 1623.394165 3859.936035 2860.322510 2122.355713 2019.766724 1588.733032 4746.814941 1804.676758 1428.221191 1608.103882 2419.762939 1276.827393 5455.888184 1453.948608 1349.900024 2136.146240 1887.603638 1785.892334 1532.494385 1447.718994 1493.332764 
Conv_212_param_0 30.161573 65.199745 56.130775 26.624523 81.311653 57.980129 61.313282 285.192596 66.256973 58.892666 70.811485 39.124920 45.492306 69.253761 67.547668 87.635162 100.256340 82.075722 78.395294 73.805992 184.572495 230.478546 66.959000 243.926605 63.226364 65.774216 94.842522 79.430199 84.770615 84.173248 33.862576 51.831741 68.256241 208.874557 72.283524 80.366989 267.256592 50.991268 49.902668 340.225006 79.231865 48.474579 32.000423 34.682648 85.075859 88.003181 47.845173 42.996742 37.148834 64.320969 29.710604 46.755302 52.259609 87.620102 83.996201 89.118500 633.373474 30.874130 66.079987 65.062309 88.984467 35.417160 51.652412 45.583660 68.449753 280.057526 57.637325 216.257782 91.819511 56.130680 47.134808 37.444180 630.789001 77.486374 52.256260 51.835911 106.186432 119.195862 70.611229 87.539146 40.201504 41.496258 54.151054 65.838959 71.382980 295.091034 138.651611 82.353325 144.809448 44.478424 73.465256 28.995335 355.737579 289.103912 134.667969 182.946442 70.251556 116.038147 337.720032 64.136230 50.907757 90.826012 69.002960 47.019424 65.422203 52.059734 53.109287 109.424576 98.627197 56.398529 71.635406 43.658028 264.754303 46.772221 85.636948 82.770409 22.585051 54.808056 50.633011 39.785892 114.352310 55.089031 341.276520 44.977917 77.931206 288.186707 48.344051 329.705994 43.316059 69.482239 52.564766 100.679672 29.090496 52.055775 37.075539 56.459633 23.805527 72.668793 59.909107 363.079132 45.696785 86.356255 79.286812 33.393032 108.872330 57.536774 54.818623 87.086563 94.959480 26.892900 183.639191 95.244423 45.856281 424.375488 72.911766 94.906311 76.983360 61.988285 165.121368 154.087372 287.470276 83.832840 38.405907 73.834717 82.528893 49.937157 46.079456 24.111965 54.889584 33.156624 304.659088 108.293579 77.309723 48.571228 59.696007 232.843964 53.587574 66.147339 224.980713 145.301041 50.797573 65.811821 55.029934 114.549515 35.920475 59.795639 68.536690 29.356100 88.724129 75.584351 113.787186 102.470657 50.144825 71.862015 43.053150 52.525387 39.085068 66.993393 279.668884 146.546921 48.103481 68.483826 87.161453 68.535805 55.838165 85.186134 31.749315 52.412533 63.917435 46.343044 63.029537 72.606171 325.291962 333.660919 67.739563 70.081306 80.198067 187.146698 111.213264 37.820843 53.427601 58.873867 61.072670 74.100357 71.399933 62.700417 127.257004 53.900677 116.094910 55.183105 67.892197 55.401199 34.544422 93.377800 45.285435 125.487160 137.324097 47.181095 35.238712 98.114037 70.031036 60.748714 77.234993 225.919449 39.846230 79.566994 54.006195 76.133919 32.982285 44.767769 106.762619 83.925819 64.256531 89.068024 71.961472 308.769104 71.775024 376.249359 75.739624 253.976990 44.115349 84.861084 49.147091 171.175934 67.984207 40.571285 42.933292 55.919849 54.728638 37.258224 48.920521 69.574104 43.127769 108.898170 51.818367 88.982445 93.186378 50.203785 44.329517 84.666023 67.190475 72.359795 51.333794 25.315552 102.938507 524.769958 84.508606 51.299854 47.666248 30.075495 273.843475 71.950729 28.032724 62.076870 45.719833 59.059620 35.461182 34.449791 159.301926 82.701942 82.307007 152.500595 106.790260 66.972054 68.949348 18.940046 91.907608 34.848259 38.515873 54.742077 103.539513 351.235077 82.310402 59.114143 346.635559 56.998493 253.945663 77.720398 88.068748 48.369122 57.564636 127.573906 253.170135 84.767586 56.268536 84.134811 110.038322 32.184982 66.792267 92.233185 83.044037 50.161949 48.383118 78.820786 122.679192 40.185783 104.246925 69.006409 55.712715 58.262676 80.402275 58.899639 63.570618 298.887268 134.052017 54.436878 105.067703 94.035446 43.267807 56.048553 44.758930 55.414333 70.187843 39.057610 41.657673 57.717209 43.330116 273.926392 59.554157 119.527641 323.363739 28.119461 152.169250 181.202744 96.479607 79.125160 55.595413 318.479279 96.508034 34.636948 58.533516 440.882324 45.529484 147.335388 82.796082 27.744617 76.823898 73.155121 78.071518 53.023235 60.195621 117.719643 96.249718 408.289886 
Conv_216_param_0 386.075531 412.961456 394.003113 341.822723 395.611847 398.341095 350.689026 278.496765 411.847076 444.259064 462.765167 391.994080 422.900208 304.888794 348.022858 505.334961 348.779968 439.040741 363.183380 365.435730 480.512970 385.079712 381.868134 294.716614 372.063568 360.680237 339.033722 505.381653 320.385406 334.834961 317.553680 415.445190 488.529358 554.784851 255.095016 561.853821 276.432159 373.327026 451.631683 531.499084 406.107849 452.735748 488.279602 410.896027 327.021606 509.338898 392.302155 231.294128 345.708252 438.172760 359.518280 177.441193 246.885025 369.269073 373.207001 376.301270 316.729553 430.239929 368.342255 262.886322 342.063995 368.006012 409.702026 469.226471 
Conv_232_param_0 1707.141357 2550.523682 2028.743042 2452.414551 1740.066284 2130.178223 2035.574341 2050.643311 2985.247070 2137.609863 2258.101074 3317.020264 2806.691162 2371.340576 5908.269531 2648.454834 2556.054932 1243.452393 2769.718262 1872.558350 2880.116699 2492.637451 2342.912598 2842.796631 1089.286499 1643.417969 6215.883789 1597.649536 1226.635376 1703.248535 2562.394043 1390.100220 4479.387207 2305.108887 2308.488037 4717.499023 1296.120117 2748.279297 1613.631958 3930.019287 2692.809326 1614.550415 2920.160156 1760.222290 3543.083740 2267.169678 1831.297485 2195.760986 4078.769531 1447.491211 2567.851074 1613.595825 1608.454224 3358.873047 3077.032959 2957.810059 3316.081299 2708.583984 3453.736084 2327.758057 2716.203369 2890.240723 3856.659912 2312.342285 2253.943359 3336.104736 1618.493652 2914.699951 2165.470947 3180.520264 3025.700195 4985.651855 2453.468018 3119.835449 1156.008057 1823.445435 3116.245850 2429.830322 2121.371582 3053.423828 8050.781250 1782.859619 2759.043457 1695.991211 2081.770020 1824.754028 1733.146118 4829.507324 2112.287598 3831.802246 2372.049316 3093.522705 46736.753906 4999.053711 1371.603638 2954.926758 1716.735229 76266.851562 2863.875732 2203.831055 2032.515137 3574.928955 1590.454956 2173.185059 7596.625977 1138.521240 1794.306641 2271.467773 2007.290405 2028.469727 2693.159912 7201.715332 1797.331177 3080.507324 52783.933594 1442.843628 2554.081787 808.970215 3980.613037 2679.214355 2617.242188 2420.803711 4069.404053 1718.183350 1224.492432 3448.731689 3595.717773 3263.903320 2296.950195 2593.094482 2805.770752 3405.892578 2162.532715 2110.659424 1969.811890 1895.372314 2295.916504 1865.083618 2182.548340 3045.922607 1936.481445 1873.322021 2064.718750 1832.609009 1883.523193 2144.042969 2454.090820 2024.567993 6316.810547 3261.808350 1611.912109 3849.432617 1941.303833 1921.312866 2895.502930 2082.342773 1232.734009 3076.767578 2954.978027 2053.398438 3446.934814 1668.664062 1830.900635 1897.506226 3000.216064 2286.888428 3658.478760 1197.214722 3498.864258 5384.255859 1478.651123 2161.811035 1698.839722 1362.406616 1544.691162 1370.672974 2514.969482 2777.878662 2964.505615 3382.198975 2409.156982 2230.495850 3453.534180 2100.379150 1697.673950 2903.248535 3009.318115 1563.791870 1594.402588 1635.555664 3147.312012 2573.201660 1692.573975 2603.496094 2329.888428 3049.009277 2181.073242 7102.502930 1421.201660 1806.266968 1612.492065 2583.296143 4698.473145 2067.583496 1822.021240 4712.048340 1475.756348 2552.840088 1748.875488 2669.905273 1790.926880 2529.201172 2899.044434 1307.016724 3782.583252 2491.039795 3026.549805 1853.388550 8325.730469 1970.585571 2155.874023 2731.068848 2949.114014 2286.313232 2119.593994 2658.048828 2118.869141 2105.550293 2462.891113 2520.687256 2033.438721 1842.107544 2718.524902 2354.288086 1671.191650 5095.582031 2166.702148 2052.521240 2388.696289 3385.818604 2961.362305 2430.297119 1755.125610 2067.798340 2376.459473 3111.469727 1928.910767 2615.642090 2125.120117 3845.159424 3481.012207 1607.079712 1707.295166 2506.658447 2958.318848 3350.619141 1063.835327 2264.708740 2389.328613 2404.841797 2087.516357 2507.834229 2639.347412 3931.496338 2098.466553 2695.219727 148365.562500 2859.183105 2334.539062 2157.020752 2182.050049 1919.872681 2548.441650 3356.709229 2395.446289 1495.417358 1479.914185 1499.941772 2164.471191 1452.737061 2986.031006 3579.856445 2179.910645 1738.919434 2513.793213 1542.107666 4319.853516 2588.448730 4501.884766 2881.622803 2548.599121 2294.868408 2664.345215 2166.886719 3287.432617 2053.942627 2019.113037 4456.210938 3399.928711 1871.143677 1704.872314 2340.242432 1914.365845 2169.071533 1926.258423 1848.845337 2021.270996 2047.226807 1682.262329 2015.135864 1350.068848 3708.498047 2649.823975 2533.553711 2387.777100 3800.571777 49564.796875 1229.624390 1152.526489 2584.057861 2866.197021 1583.244263 2784.073242 3805.651855 1402.113159 2258.869141 1741.208130 5012.502930 1171.804932 2525.765137 2479.125488 2810.603271 2535.663086 2754.769287 4334.084961 2988.991211 6234.627930 2232.979736 1121.910156 4690.690430 2461.752686 2301.556152 2164.755371 2873.686035 4001.639893 1358.911011 3144.877197 2104.735840 3099.155518 2527.963867 2974.809082 1198.620850 2372.071777 5464.447266 3145.341309 1465.114868 2643.016846 4178.229004 1959.466675 2738.806152 2212.706787 1465.537109 1244.173584 1547.575073 2068.758789 5289.401855 2101.688721 2238.283936 2431.125732 3715.071533 1429.555298 2023.798096 1649.197510 1733.188965 1548.675659 2726.878906 2371.315186 2057.397217 1786.557617 1669.765015 1879.410400 1811.175049 2836.646484 1423.262939 
Conv_236_param_0 80.113350 50.031853 84.451752 75.559891 32.228760 80.306206 55.279240 61.815128 67.880035 80.959335 75.941887 32.735443 70.764198 123.419121 27.905642 70.722748 46.192360 319.111786 51.751392 91.541306 51.477081 79.942413 95.659004 49.510834 116.479683 47.877743 25.147993 259.202026 64.832047 292.411041 60.527039 128.489777 31.009783 93.885262 94.602982 46.065063 71.065628 222.743591 93.251930 34.554043 38.016834 258.639099 95.086411 48.489620 49.590462 92.246040 75.625023 83.533730 57.426792 197.567245 78.828392 96.465622 290.005157 85.252090 75.477989 92.319733 50.220493 66.049377 41.340992 33.677422 47.892300 115.029915 40.414692 88.919266 206.555374 95.114716 347.523743 82.453575 32.948421 50.880077 41.641743 54.517620 62.904266 105.305771 157.692108 41.450436 61.568462 100.876572 81.746025 66.560051 27.150513 160.360443 54.829048 37.616669 82.532814 65.333595 231.082733 34.506371 96.960068 37.623795 37.798912 73.971970 230.724731 28.033684 60.906910 57.058258 292.272034 37.947567 62.785423 74.707268 218.125320 49.618595 92.372185 270.309967 34.371475 128.062378 217.884872 74.520500 283.728271 85.988693 107.376541 21.867268 92.980087 62.676479 7.756011 218.424805 64.653419 69.354218 34.010124 43.968166 311.579132 103.313271 36.300720 469.224548 144.120392 97.177353 66.124321 49.144508 61.265266 86.070320 99.091934 46.701683 89.102127 298.732971 88.018600 193.559372 265.231781 207.071487 106.957512 117.606117 201.155685 298.517303 87.587082 288.639954 126.933678 54.178490 193.244461 143.794937 24.421923 64.616302 232.281662 44.809895 119.367737 165.409988 73.752945 78.169373 160.120605 46.432617 52.808163 134.489258 81.330406 68.412254 120.716721 153.190674 73.520615 66.348015 44.610737 103.454620 142.348892 54.577873 215.258942 167.804810 84.087761 350.605011 237.067917 97.527588 288.433197 251.160782 75.564247 57.450603 68.666321 330.484253 107.140343 263.968048 71.766045 140.217560 113.465836 73.003548 74.235619 110.228310 77.775513 42.789234 54.376827 99.799698 111.628014 57.244175 99.851089 41.975838 76.269768 89.240723 108.277924 54.349583 27.406609 197.748154 109.845581 36.587856 122.749298 46.004551 211.176010 68.824547 41.853031 100.696342 261.623657 44.873913 73.737228 294.367371 57.696720 242.617035 22.003860 45.345982 79.120865 265.149811 80.594398 65.338127 191.470169 69.658653 106.155167 258.455170 101.366859 81.687439 162.325180 56.731972 400.619232 109.844643 328.570953 66.010048 78.522293 50.917801 71.380707 83.605667 148.532410 70.742844 169.692902 28.188801 79.048325 75.040459 57.560673 55.949909 53.558517 47.356609 128.062744 67.342285 153.473114 68.662148 62.085075 60.746304 175.866821 243.684753 74.247414 184.284790 103.666130 75.195641 94.750404 100.994278 67.588257 76.664177 2888.609619 39.893730 70.845642 118.496368 64.589096 222.010681 69.523605 39.302109 127.200294 284.653595 250.450943 84.712250 57.313686 79.756805 91.267906 70.014847 66.577293 92.800949 84.863358 96.302429 34.025364 100.835907 33.204128 68.295921 48.740402 91.434456 54.889141 117.770836 52.964161 85.906395 44.369152 34.051804 108.047256 63.798244 79.840813 82.872307 90.828682 52.046528 60.619076 222.767960 166.042755 106.532944 63.850952 56.804371 170.893753 57.028484 92.118675 173.540436 63.602837 24.568844 694.999268 83.984680 56.452969 81.605202 38.486416 323.761108 92.264557 59.173641 81.214012 61.164837 120.366882 38.145103 147.839737 98.580559 80.222588 70.462723 76.361908 55.087013 32.642620 47.106560 26.163664 81.028015 81.703087 106.483826 81.729568 57.522945 54.825783 58.776474 30.822180 217.689987 168.680542 116.353600 68.872536 242.803177 72.255615 113.530403 51.019009 25.222647 106.188301 216.712326 47.921803 87.637451 152.870758 77.570564 78.925728 36.601406 76.991913 91.076935 143.794235 46.196857 59.660191 73.210663 83.260063 37.405491 106.107941 279.564178 153.099686 343.258209 172.991638 76.215660 45.889008 63.717255 62.364990 321.838257 55.230423 89.090599 182.606186 85.408356 
Conv_240_param_0 332.531830 366.192322 374.066406 273.688354 375.590759 367.832489 343.923798 348.994843 273.013245 381.680786 455.043915 353.973145 313.745148 377.058594 347.339478 410.469604 325.820862 518.151428 271.358917 425.659576 474.686432 380.469238 413.427124 264.874023 410.177582 379.318451 327.672455 294.872589 272.034058 299.249634 218.346008 321.971802 349.366180 475.673065 219.832489 481.183044 350.419830 372.695465 325.909332 531.639160 388.978668 312.866180 428.356750 259.021637 250.840317 406.089203 350.592499 271.681580 399.718597 591.361755 260.160217 185.823593 317.323761 388.246216 325.099030 368.661560 304.664093 302.678711 425.174835 257.008942 282.774872 380.668365 457.239716 364.870667 
Conv_256_param_0 96177.554688 1472.791382 4188.629883 3200.291016 3367.038574 3167.007568 1590.867188 1789.044189 2472.172363 1869.314941 2980.166260 2672.555908 2277.166260 3007.903809 1617.401245 2233.667725 1668.228760 2158.737061 2420.579834 2992.200684 3462.153564 2445.364258 2385.068115 4231.141602 1429.410156 1880.593018 2449.217773 3180.332031 3011.341797 2156.686768 1764.355469 3334.425537 1947.912354 2719.804443 1663.615601 2375.100830 2783.039062 1531.418945 1793.715454 2126.736816 1982.853027 2526.323975 2596.266846 2288.980469 2359.911133 2454.128174 2375.600342 1717.350098 1710.407715 2313.071045 2028.712402 4407.426758 3813.566162 1191.155518 2366.179688 2122.498779 2718.301758 1676.472534 1472.792358 2057.589111 2152.652100 2332.071289 1548.635254 3709.701904 1965.119141 2250.598389 3585.854492 2053.321289 2228.362793 2179.135010 2899.148438 2116.601562 1713.561157 1961.511597 2719.648193 2769.072754 2030.156128 2467.853027 1873.904053 2498.943848 1881.936890 2077.992676 2804.640625 1453.671387 4157.492676 3513.214600 2411.399414 2956.177734 2573.903809 2175.335449 3562.080322 4244.250488 2739.761475 1799.206665 2746.915527 2905.357666 3290.613525 3015.551758 3452.448486 2349.061035 2033.228516 2236.324219 3295.788086 2519.372070 1886.567017 2031.685425 1875.040283 2948.618408 1701.977417 2421.282471 3161.113037 2489.906494 1816.372559 3385.708984 2059.385010 2776.331787 2217.157715 3015.128662 1733.996826 1702.074463 2101.533936 1773.019531 2192.754883 3641.304199 2183.740479 3979.429443 1549.580322 2730.267578 1964.712280 2380.783203 2412.067383 2131.209961 2318.775391 2184.982178 1591.337158 2615.290527 2338.933105 2854.111816 3397.132080 2849.993408 2194.154785 2355.855469 2001.630737 1970.827271 3540.318115 1469.670654 2540.629639 3378.365967 4800.552246 186399.000000 2229.829834 2702.484375 2722.718994 4975.559082 3037.085938 2298.709229 32755.523438 2107.800293 2762.210938 3029.231934 2398.434814 2190.822754 4306.753418 2587.379883 2947.228760 2250.460938 2788.090332 2075.272949 2984.165283 2369.812256 2116.918945 1946.839111 3711.548828 3511.076172 1340.819824 2730.624756 2892.597656 4903.115234 3717.867920 2266.531006 2773.973145 2087.707520 29153.341797 3082.152344 2183.817627 1968.785889 2320.560791 1303.317627 2494.516113 2160.869141 1860.044434 1979.524414 1522.184082 3186.533691 2162.036621 2695.679443 2266.864502 2764.147461 2226.687500 2308.195801 6948.036621 2806.329102 1482.827148 3648.544189 1611.468628 1559.976929 4377.195312 3052.025879 2560.340820 2433.213867 2067.075928 1620.858765 2124.484619 2473.953613 2364.611084 1705.689209 2393.392822 2038.033691 3230.019287 4402.824219 1916.601196 4325.740723 2907.115967 1448.405029 1770.210815 1640.966797 2901.170410 818.956360 2502.660156 2719.082520 2664.748779 2804.987793 1588.018066 2698.074707 3298.362793 2708.481445 2657.268311 2323.299805 1129.475098 5517.107422 2594.274902 2937.281738 2235.572754 2799.839844 4178.251465 2905.842529 2040.245239 2332.096924 2455.391357 2070.479248 2411.151611 2550.643311 1623.542725 1507.206299 2492.132812 2230.413086 4131.647461 1584.570557 2909.709473 2054.883545 3192.966064 3273.940186 2352.525879 1830.725708 2229.004883 1679.201782 1238.864258 9463.755859 5579.769531 1917.464966 2755.352051 54595.128906 2678.028076 2602.766357 2167.177246 2790.871826 2672.557129 2174.392334 1795.741943 2280.556885 2655.075684 1913.641113 2310.507812 3804.745361 3311.793945 2818.067627 2957.933594 2586.242920 2268.113525 4182.588867 2343.991699 2126.026611 2471.942383 3794.099854 1885.942627 1868.123657 2473.209717 1998.174927 1842.509033 2332.079346 1873.705688 3142.723145 1955.781128 1954.112061 2196.486084 3038.735596 2024.727173 2471.092041 3060.973633 2755.268555 2380.967285 1564.186646 2482.700684 2091.171631 2073.268311 2024.134521 1853.553345 2035.647095 2543.605225 4282.923828 2015.672241 1725.388916 1662.480347 2108.116211 2840.673340 2383.360352 1937.083496 2719.214355 2703.188721 3034.792480 2403.784180 2417.969971 2172.436523 2504.965576 3780.637207 2752.763428 3619.817139 1929.337158 2138.111084 3676.175781 2706.224854 2810.077393 1920.047241 2354.689697 8150.101074 2297.399170 2025.725220 2322.802979 2332.356445 2095.016357 2493.412109 3385.809570 4194.019531 3247.460449 1758.799683 2248.024414 3599.626465 1755.233276 2068.491211 2764.426270 2014.232666 2811.054443 3469.131104 2727.531494 1969.069214 1621.868652 1465.307251 8058.960938 2142.979004 3142.307861 2152.824219 1165.874512 1783.981567 2005.437500 1915.505615 2763.729004 4470.542480 2679.248047 2438.526611 2938.582031 3909.654053 6583.482422 3083.748291 2796.767334 
Conv_260_param_0 724.524170 70.769684 78.230377 190.943054 81.806885 70.099571 46.353325 68.226616 61.283344 96.422058 78.200363 62.654297 70.138550 253.882355 376.860779 66.628464 82.513252 86.713158 63.476292 61.678356 119.849419 98.899979 150.338928 56.433586 89.422112 178.848709 150.177078 80.517616 70.231575 191.434402 412.735748 47.648464 55.809177 46.722233 101.257683 174.585922 46.153759 216.229736 73.320221 232.274780 264.274200 90.323647 85.261185 92.429100 154.795013 117.899551 78.633896 105.966843 73.302925 69.539948 102.210480 64.770515 54.484283 173.679642 60.372421 139.930023 77.465630 237.153214 155.243576 102.436401 71.126564 80.811211 71.405952 121.431961 103.383156 53.133965 65.711967 221.662750 50.017429 93.510399 53.770103 109.206543 102.412834 84.562302 99.375488 83.379784 115.745514 58.841042 121.115288 64.425842 93.324509 119.361946 81.321884 84.354797 122.155014 77.176704 66.611008 100.711777 64.850197 178.156982 64.459999 47.808266 76.075592 80.804359 78.886986 76.253471 60.894154 63.128288 119.146233 303.475403 127.669243 63.361954 46.104576 81.327324 268.528229 61.622410 152.810150 28.547176 52.593838 31.986996 90.627457 67.925537 77.926491 49.581985 73.596275 58.606281 141.032333 80.941551 153.766800 72.494370 68.720123 149.917542 68.493294 53.899349 122.583595 39.036259 149.500732 68.908661 95.221161 105.860901 48.037605 257.088043 71.274879 86.408798 98.177391 250.097214 151.597855 45.136200 56.423489 58.163239 306.964020 38.708580 91.676346 192.331436 195.514404 78.916161 63.726448 121.918526 34.518517 3378.605713 31.725418 63.154835 154.025360 76.372879 62.275269 113.468506 159.119934 59.759811 74.327766 82.792923 70.721283 60.160229 45.408566 94.926064 61.908726 64.969238 89.024979 244.061523 96.319649 112.132645 135.718964 67.866386 90.375275 55.898132 191.989883 56.973206 80.054977 47.914749 45.752441 72.091766 90.016518 68.980598 230.114563 41.071510 61.887535 154.736176 95.485069 75.762108 99.784592 116.172913 149.806915 315.601410 245.346405 57.874008 129.011261 261.881348 81.833344 56.494591 67.612946 304.981750 39.476299 57.376827 84.866951 56.838875 124.386940 87.797401 65.908302 62.831856 86.132721 120.661049 71.118622 44.695713 274.424225 78.066536 155.101273 124.082741 56.008347 59.967850 49.227287 153.342407 91.782829 97.522278 67.699799 76.175964 87.835220 255.574432 179.581543 545.926392 218.295486 125.331955 72.891586 43.095234 86.584663 93.747261 48.703209 36.685162 54.257568 34.165070 53.790363 94.068573 254.616074 58.288158 97.250420 46.947117 46.186199 83.626831 56.185776 41.196777 70.429352 66.779793 249.074890 77.666962 114.491951 199.656479 165.096222 139.855591 31.576298 103.590179 51.310272 51.793797 96.311562 50.954926 79.287811 283.635406 120.482605 466.080780 96.958984 16.871466 47.814171 107.251915 125.726372 211.365494 51.806770 79.642273 129.094742 59.423119 144.478775 89.378876 96.969467 73.897163 159.472336 174.473633 206.273422 66.360268 45.132900 88.092148 73.545715 72.921967 172.776215 70.334534 56.816147 83.309250 55.138264 31.736160 104.625313 41.361515 51.779068 80.098747 62.400051 108.883583 72.124023 54.209728 91.047318 61.084393 56.507530 84.642578 312.083282 58.253262 57.353649 79.103821 241.390457 90.763458 50.168583 87.071114 90.049858 109.137299 305.527924 39.748589 90.632416 31.250948 66.064331 140.901047 208.605316 95.753548 75.282066 66.207024 93.098190 95.728188 140.375961 59.755474 176.359558 127.586349 89.133072 159.468338 135.791397 127.036819 52.285023 174.428314 79.824493 139.687363 88.245125 105.894592 67.434959 83.105614 21.170912 292.312866 114.292328 75.265648 59.862072 208.573959 80.548950 57.365288 35.322266 67.024979 150.553970 61.112103 63.720116 191.730042 194.279816 138.381256 103.517319 51.920147 313.907990 67.455742 131.130920 60.826851 174.535736 23.167566 76.396606 154.120697 64.638023 66.764107 227.436417 108.529938 103.550209 23.461079 44.184158 152.954865 75.446526 122.578476 102.559952 24.775627 100.351669 74.976486 
Conv_264_param_0 347.472076 365.855560 146.482971 398.209717 326.648438 301.907043 372.022034 333.470551 294.407104 244.589859 288.595001 385.844177 277.328064 389.441254 446.087921 368.528961 398.963379 458.711304 267.328644 465.580627 375.728882 393.402863 347.858459 208.990936 301.289856 267.906067 247.970367 372.359802 295.039581 317.428986 254.974106 269.978027 191.320526 445.474304 310.105652 284.356110 193.284363 405.791565 300.678314 191.165710 358.993256 318.776520 366.390686 354.863220 318.874115 408.319855 283.170288 317.240814 284.872406 480.887695 325.985626 270.049866 315.548615 291.983734 377.532806 304.162476 247.475021 196.487946 345.148468 274.578339 153.019241 358.137726 416.287354 367.255859 
Conv_280_param_0 2180.592529 2859.900391 1468.829102 3093.971436 2127.972656 1904.165894 1887.757324 1408.445679 1949.814331 3434.605713 3675.328369 2192.762451 1742.568237 1297.222290 1267.576294 2339.667480 1817.595947 2565.568359 2774.493164 1836.967773 1606.534302 1762.813599 2113.247803 1929.155273 2753.075439 2463.622314 2525.322266 1829.651611 1731.930542 1982.371338 2364.151367 2723.012695 1639.225952 3321.786133 1882.006958 3519.021240 1987.687866 3081.938232 1590.395874 1866.290161 1672.584473 2211.792725 3225.130127 2019.340820 1531.398193 2102.793457 2249.247559 2786.179443 1907.713501 1566.003052 4499.091309 2622.072266 2837.656494 2566.916260 2327.638428 2882.538574 2186.561279 1185.512573 2669.336182 2948.193848 1980.351196 2738.552490 2594.714600 1404.871094 1480.855713 2147.364502 3088.298584 3962.771484 2136.105469 3999.845459 2220.486084 1736.615967 4913.151855 1943.193115 1906.837769 3260.032715 1665.848511 1847.982788 2293.725342 2414.001953 1339.646362 1711.780518 1745.365112 1426.005737 1340.476318 1240.587769 700.642639 1549.023071 1627.544556 2308.157471 2084.855225 1643.474243 1446.776123 1947.897461 1409.897339 1423.139526 1856.546875 2608.319092 1959.751831 1547.939697 2889.647461 2701.846436 2459.885254 1748.129028 2359.318359 1653.189453 1698.117432 1466.703735 1807.859009 1105.023682 2292.388916 1985.989380 4241.534180 2375.616943 2249.173584 1855.702515 2118.664551 1710.705933 3696.221680 1910.744995 1392.403931 2776.853271 2802.550049 1806.397217 2696.574951 2894.555176 2581.345215 1581.676147 2132.214355 1757.477173 1921.327393 1547.747559 2006.838379 1755.291504 2423.518066 2076.984375 1913.609131 2217.268799 1376.154785 2368.419434 2280.397949 1686.985229 1576.511963 1629.194580 1904.118530 1836.963135 2052.423584 1818.845581 1097.375366 1650.572144 1990.555908 1817.530151 2480.599121 2312.950684 2966.745850 1739.838867 2329.007568 1583.087280 1909.051880 6390.304688 3097.609131 1904.338013 2361.124512 2784.842041 1770.914551 5523.097168 1420.393921 2625.612793 1919.508911 1568.175537 2269.370117 2404.108643 2985.610840 3934.668213 1090.686157 2161.124756 2152.682617 2504.305176 1338.660400 1806.352051 1326.257935 3569.009766 1948.568359 2150.801758 1444.517944 1722.638550 2324.216553 1074.007202 1047.906372 1676.394043 2117.641846 1638.522827 1478.264526 1522.319702 1998.602295 1312.045288 1263.324585 2137.519287 1095.631836 4263.891602 1760.748291 2907.132812 1699.782837 3045.985352 1045.540649 2042.595215 1887.220947 3127.414062 3236.508545 1885.996094 1736.398560 1366.229248 2059.653076 1401.205811 1597.686157 2148.528320 1067.903809 2617.551758 1936.282104 2075.297852 2236.589111 1628.760010 2691.597412 1363.872803 4845.800781 1337.560181 1672.792114 1560.763916 1401.973511 1513.342163 2488.373291 1481.978516 4523.408691 1183.203125 1974.482910 3041.426514 2033.189453 1602.010620 3397.763184 1725.820312 1805.271851 2622.916260 1768.220947 1316.190308 1556.227661 1539.782349 2568.250244 1638.043579 1516.461182 1109.110596 3296.119873 1591.098755 1511.627808 2645.955811 2650.952393 1936.150635 1919.933472 1527.164551 2093.752930 4957.229004 1393.628906 2495.196533 2234.226318 1274.133301 2014.478394 2015.329346 1578.706543 1370.973267 3933.789551 1409.068481 2830.145264 1632.128784 1612.942383 3389.925049 2068.892822 1579.207642 1645.080200 2296.648438 1760.401245 1977.538452 1880.204834 1286.260010 2753.581299 2075.206055 2393.343994 1442.986206 2181.067139 2954.071533 1314.230103 2631.926758 1566.325195 1865.106201 1434.236938 1792.060303 1687.076294 1908.727173 2616.612549 2221.854248 1593.734863 925.609253 890.718323 2168.268066 1204.865723 2581.256592 1834.775879 1166.297607 1556.073730 2125.965820 1489.857910 1337.359985 1373.291138 1920.863159 2868.189697 4149.084473 1188.650513 1955.228760 2321.525146 4435.198242 3971.583496 1637.656372 1890.392822 1788.084595 1748.397949 1661.546021 2319.760986 1631.251465 2659.283447 3586.930420 1835.786865 1158.283813 1817.089111 1644.271729 1589.105347 2450.159424 2311.382080 3416.876953 3596.612793 1647.637329 3194.116211 1370.113647 1736.804077 1407.053101 7987.397461 4898.687500 1792.363525 1381.155273 1957.680298 2181.639893 1631.417236 1892.025269 2307.304932 1543.182495 2258.857666 3713.484619 1916.991577 1661.269531 1768.253540 1456.137207 1682.298950 2187.565430 1380.976929 1775.553711 2092.332031 2670.264648 2006.692139 1720.783936 1697.452026 1595.675781 2179.874023 1652.153198 1544.567749 1590.483765 1401.558960 1343.747681 1452.921631 2564.179443 2435.236328 1824.145508 2341.047363 2129.045654 1448.091064 1697.240356 1907.969360 1640.226807 
Conv_284_param_0 116.399605 54.165562 133.072891 166.931122 79.142334 258.766907 71.474625 116.019676 89.048889 74.066353 33.036926 317.564545 289.689697 94.469429 117.648781 55.800350 88.351273 49.563622 108.970459 83.507950 69.844421 65.207870 65.710777 307.486053 52.447578 47.706539 46.172264 66.994606 194.562775 68.257645 75.840179 43.879833 76.047699 41.431541 62.836155 83.310875 74.937538 87.849228 82.303513 93.887596 61.231899 132.315445 29.226496 177.826447 59.586094 79.171371 63.407707 96.272270 208.443039 146.528488 29.006327 79.159821 70.258972 64.947105 45.461948 82.915176 48.470421 63.100266 50.312752 48.159195 57.712460 256.841492 84.374428 130.023392 60.732449 97.715836 69.314079 36.538246 76.405991 54.532310 85.939087 86.299210 29.508005 207.549149 126.779274 66.653587 137.835037 65.257103 129.022858 36.446980 60.506283 68.755592 73.575233 152.312073 90.959808 53.688686 234.761963 222.460052 102.647598 55.296944 66.909363 80.717789 69.562157 58.427792 73.437080 611.578613 77.140907 79.358551 74.874039 80.761681 55.991745 52.704613 249.835754 158.335052 88.286545 142.896530 206.012955 64.174988 89.429741 120.736053 144.011536 73.662949 22.654480 105.707932 45.843254 52.653484 73.189392 323.341705 84.199173 99.788200 68.726624 170.992355 105.982498 52.818283 62.799152 69.332100 109.908539 67.763878 87.765411 107.557579 125.910240 100.728973 56.506927 132.146362 214.380356 76.176399 88.460190 156.979691 87.395081 51.433887 236.349274 343.584473 74.519012 48.513672 295.505219 87.092331 50.957756 110.924263 94.055374 68.804420 239.129120 127.416878 239.766373 74.487350 90.682816 50.090572 42.649651 91.846107 275.584595 37.593887 59.804562 77.006744 87.684807 85.881569 102.195946 21.136045 67.902328 62.932026 47.228901 306.240479 59.098694 41.954079 47.621056 135.221451 288.672699 71.714134 80.677246 50.984825 78.786873 120.766647 84.354012 119.921974 210.177658 81.868958 64.420799 59.281212 45.762516 100.755569 102.264755 69.525230 58.372128 59.780285 250.251862 139.752716 145.474716 73.809746 175.594574 337.055298 85.438042 55.996811 240.607178 82.450729 440.031586 44.051670 95.376015 99.399231 107.261978 38.207268 37.487827 77.737518 50.076454 65.669746 96.762558 62.776394 121.774681 377.170685 84.331017 90.463463 81.070404 64.417816 42.992332 72.367226 56.805870 82.255272 24.853710 164.403107 78.475456 233.876740 74.483414 57.217541 64.540619 62.538574 56.482635 119.216873 148.942215 31.935528 86.702461 66.127563 60.478245 72.916641 72.724998 50.726795 62.394737 102.953438 160.267944 51.342678 123.884750 47.781170 248.837845 259.031097 39.899162 64.759361 77.726044 167.262787 185.522293 67.142738 87.526581 383.246429 52.356091 23.996960 56.866608 58.916771 37.967834 73.408745 128.866119 121.938148 190.860306 113.790359 56.537296 191.890549 208.198441 456.928833 69.058128 30.628698 358.412750 119.949799 84.315659 56.396229 185.644333 65.542091 83.727715 78.128860 63.412487 55.327034 57.628078 66.122017 42.350307 175.724548 64.891670 55.191109 259.425049 117.670624 83.639374 84.203026 171.517303 80.291801 48.880764 53.135952 111.602730 76.190697 60.355892 62.823765 67.350403 64.255333 390.535492 170.784286 108.096474 54.243721 132.836090 85.576248 95.307251 52.561638 39.460812 32.463486 62.448898 60.140648 101.208794 28.604645 52.322350 108.311897 52.607121 60.653152 271.592804 48.005089 223.062454 51.176117 49.655472 53.240631 97.877426 82.213196 78.027580 91.692101 84.974037 302.181946 253.873398 72.840469 39.935699 89.069374 34.422142 72.433197 142.007690 187.397995 13.388519 18.433151 55.092274 69.167885 147.516205 47.880791 199.202225 64.080116 51.949562 94.183914 81.119514 29.545753 79.223114 106.581482 84.297836 257.439331 67.320152 185.661758 152.407196 78.935715 66.394180 86.871033 55.239651 69.577415 76.811569 62.242470 48.222153 67.821053 83.155647 85.675735 61.940018 74.178841 72.051598 110.896339 29.977686 142.323914 272.521515 74.898407 64.134666 75.009232 332.626312 56.262424 
Conv_288_param_0 415.608917 598.122559 531.858398 474.155731 559.275818 580.316833 497.255554 604.233887 502.623901 541.232361 471.835785 465.678711 548.538147 454.280304 485.469818 365.653046 496.329071 585.950378 529.327759 373.265961 446.512939 530.194519 418.836884 446.861450 517.695496 457.471832 491.634125 537.770447 415.495178 473.220428 509.306732 637.737305 405.405640 385.988159 520.319885 452.368225 477.750793 389.678833 541.223206 345.149872 383.496399 427.751129 467.472961 552.997803 419.877899 522.054260 394.051910 561.482544 451.366211 467.192871 566.546692 459.225189 479.262177 503.631836 410.126251 520.965210 372.900909 377.151550 606.122620 409.292664 475.745026 407.395905 395.971344 385.971954 374.348724 477.915558 455.244049 325.689972 552.132996 509.275513 443.702393 578.735291 588.270691 565.643921 456.549347 382.629791 502.854492 375.572327 545.715271 365.936981 499.990540 434.379944 545.441772 544.738220 398.520325 463.209930 203.403503 335.731598 299.384308 375.990082 337.261963 534.745605 533.174744 529.041809 471.898071 379.401855 
Conv_303_param_0 1585.898804 1329.348267 1350.393921 1381.614990 2175.165039 1561.452881 1579.674072 1488.900269 1204.636230 1509.862793 1453.289307 3760.357910 2320.531250 1599.372925 1317.576172 1831.198730 1706.126587 1941.213623 1208.307495 990.701172 1588.977905 1141.022339 1574.425171 1777.631470 1692.888062 1578.140625 1134.184570 1499.243774 1277.869019 1750.772583 2168.128906 1683.791382 1860.653076 3401.845215 2874.648438 1734.178467 2644.089355 1732.809814 1461.251587 1837.880737 1320.018799 2262.958496 1537.315552 2627.180420 1318.996094 1114.092651 2121.723145 903.448181 1005.489014 2273.852295 2202.363281 1244.899780 1696.002319 2613.707764 1777.483032 905.502380 1650.956421 1690.506104 2356.574951 2010.604004 1705.357056 1038.973633 1490.809448 1798.859985 1679.118286 2013.265625 1946.750488 2686.690186 2022.377808 1892.623413 1870.870972 1174.312988 1820.325073 1487.100220 1683.736694 1173.643311 1436.536011 1953.447021 3909.151367 1405.661011 2370.097168 1489.130249 1477.220947 1352.165039 990.659912 1051.066162 1329.521851 1489.664917 2333.757080 74110.429688 78478.734375 1489.474121 1099.822876 1484.874756 1236.716919 1014.897217 1344.647461 2054.384521 1261.733765 2335.058350 1882.071167 1313.439453 2134.255859 1685.890991 1966.376343 1865.191772 1660.945068 1622.791504 2199.504883 1482.418945 1495.922974 1024.992188 1309.015137 1548.236328 2219.611816 2083.501953 1269.035645 52485.371094 1425.194458 1741.757812 1880.780762 1692.540283 1035.781128 2173.318604 1876.204224 2690.530518 1552.651245 1825.707153 1356.757324 1409.487793 3717.835205 2074.703613 2159.993164 1473.053101 1694.234009 1196.193115 1499.320190 1281.378540 2348.604248 1657.817383 1942.063354 1340.459351 1467.369141 1678.892090 1351.020264 1400.576782 1624.087524 899.192444 1647.289062 1605.070801 1383.031250 2455.704346 1897.475220 1370.700684 1571.500488 1397.467285 1542.386719 1798.583252 1306.577515 1983.122925 1566.728271 2750.183594 1620.058716 69273.140625 1712.577148 1591.400391 1582.868652 986.165161 1827.298218 989.981934 1133.620605 2498.053223 2035.648560 3954.528564 1469.602905 1154.259399 1607.105591 1009.665039 876.952271 1877.967041 2261.913330 2180.464111 1306.943359 796.518921 1110.969727 2213.525391 1551.667603 2212.438965 2007.782227 1057.551270 1444.652954 1327.146729 1237.896851 1363.345459 1489.251587 1326.731689 1295.254272 1010.127747 1315.477661 1641.060669 1683.323242 2156.148193 1491.952515 1356.795044 1357.838989 1632.270874 1789.812988 1229.787964 1991.468628 994.724976 1650.441772 1599.697754 1149.450195 1736.809326 1818.389404 1101.401245 1302.986816 1237.962158 1508.701050 1602.659058 1213.967285 1176.679810 1562.606812 2823.038086 1750.382690 2221.653809 1386.890137 1228.503296 1204.147095 1836.670410 1559.923096 1807.670288 69063.867188 3140.807617 1190.996460 89381.250000 1811.433228 1765.956543 2221.053711 1519.213135 1868.489868 1911.637085 1251.247681 1044.632690 1646.519043 2201.833252 1211.405640 1528.393311 1192.533447 1119.331055 696.972046 1448.306519 1969.426147 769.320312 2045.592163 1767.793457 1211.097168 1536.189453 2483.620361 1518.010742 1347.498047 1275.267944 1030.198120 2130.575195 2165.317627 1825.427612 1940.909546 1930.539795 3009.755615 1110.667725 1080.097656 1575.817993 891.313843 1722.632080 1228.512085 1674.368896 1352.487671 1454.211670 1401.770508 1372.163452 2214.641357 1572.269165 2168.700928 943.724670 1589.256470 1522.318359 1717.414673 2012.923706 1343.200684 1832.280029 1872.139771 1624.127441 1235.541748 1210.429443 1008.093506 2433.472412 1976.114746 2016.840942 1684.090332 1259.764648 1199.624878 3607.385742 1879.326172 1543.140015 1551.241821 1871.980103 1651.492554 1350.929443 1645.763916 1655.090698 1759.989380 1111.404663 3012.050537 1287.375000 1103.346313 1431.277222 1043.475586 1407.013672 1561.494629 1623.922729 2289.179443 1750.342773 1327.501099 1689.261475 2146.640869 1795.156494 1429.107300 2046.917603 2157.689453 1022.783508 1899.330078 1058.848145 1925.509277 2053.385986 1286.350830 1222.169312 1520.662109 3007.186523 1081.953125 1082.952148 1579.646240 1255.916260 1416.848022 1764.743774 1803.179932 3774.709473 1048.318115 1240.885376 1382.687866 841.936157 2134.124512 1645.680664 1465.222412 952.556824 1713.030640 1301.550781 1297.720581 1884.807617 1769.041382 1431.053833 1316.227295 1168.529663 1108.436646 3065.649170 1257.630249 1396.292114 2140.980713 1653.027100 1063.871826 50412.441406 3140.514160 2091.674805 1080.654541 1933.268066 1280.213379 1326.634155 1506.210327 4825.896973 1316.780884 2797.764648 1791.285156 1959.647583 1686.421265 1224.790527 1476.798462 1411.055908 3310.378418 1690.076294 1756.711060 1498.742920 1229.956543 1429.988892 1441.355469 839.919861 1604.851562 1084.130615 1438.413086 1348.422974 1526.434204 1824.664551 1532.338257 1451.686401 1341.340210 2278.621338 1564.500610 2162.104492 1739.926880 1382.905640 1822.426147 1829.564819 1586.359619 2583.707031 1651.358398 2882.856934 1777.640259 1173.822510 2996.194580 1734.366455 2616.169678 1472.493896 1999.998535 1750.127441 1058.444336 1158.064209 1423.452637 1441.934326 1216.359009 2033.953735 1401.954102 1505.136597 1819.612549 1125.765503 1918.434937 1373.881348 1560.065796 1498.387207 1620.024048 1412.446777 1491.459961 1169.928101 894.311340 1282.148926 1829.770630 1923.842163 1634.062744 1260.418823 1488.303955 1304.693604 1623.429443 962.632935 2893.947998 1640.785645 1479.934570 2005.216064 1705.222290 1552.399658 1116.048950 1201.636230 1541.714722 2187.925293 1691.568115 2887.370361 3748.181885 844.578552 3265.008057 1480.621948 2469.596436 1701.296753 1396.588989 2195.271729 1874.167358 1744.787598 2111.392822 1026.145752 1317.062500 1696.352295 1888.074097 902.998413 1532.365479 1322.000854 1031.458740 1335.375000 1479.838013 1606.559814 871.780212 1427.379028 1755.826660 1252.912598 751.452759 1534.096191 2767.403564 1312.499756 1154.552734 1880.119995 1570.789307 1849.123169 1626.796265 2044.451050 1274.062256 1547.909058 1248.130127 1535.244019 1098.278564 2106.162109 4918.384766 1595.924316 2813.771973 1421.249023 2097.331055 2031.744995 1787.066284 1435.318726 2461.916504 2034.001953 1295.233398 2281.842773 1575.916016 1418.825317 2026.980713 1167.264771 1416.724731 1699.395752 1444.230469 1657.286621 3299.578125 756.248108 2381.502197 1197.118774 2071.691162 2356.776367 1163.111572 1403.794434 2252.030762 1127.300293 1084.532593 2685.926514 1415.571777 2158.552734 1968.734863 1326.236084 1384.243896 2806.456055 1341.393677 979.661743 1393.296875 1175.063110 1119.479248 2304.901855 1912.180298 1169.811523 2550.462402 2236.059082 1155.726440 1750.729614 2782.068115 2142.007568 1316.098755 971.590576 1690.880493 1699.231079 1411.028687 1250.829834 1590.547485 1219.461548 1560.470703 1591.990723 1140.258301 1295.065430 1374.736938 2099.882812 1296.511719 1374.536621 997.661377 1389.113159 1518.802368 1466.268921 
Conv_307_param_0 90.894302 73.246338 57.318707 216.536148 95.495377 54.907070 332.921204 87.644920 120.133972 54.886482 49.196766 45.041920 53.535053 65.102821 260.273529 44.317364 85.419510 242.925308 90.189842 84.987885 176.542816 84.085899 92.672791 102.241478 62.127598 23.604805 375.894440 29.147125 355.669708 94.960808 55.333721 516.797607 60.429623 83.955666 27.414541 136.422226 49.148228 58.215004 90.074074 45.666878 83.056694 55.840523 99.105095 73.849648 295.224304 103.202751 30.089518 74.196648 53.096249 51.065243 64.238777 111.053673 90.601479 321.491882 187.038940 78.316292 56.782898 261.757324 81.914864 87.022362 117.780045 71.202065 62.413029 67.977592 46.752701 56.752308 51.000870 45.825764 84.923447 73.466141 101.082649 267.677826 52.630608 80.003525 109.910858 65.524200 80.545456 56.508213 33.424351 95.085503 62.947025 38.791882 289.386017 251.679214 321.088135 73.439354 37.594601 63.132935 234.312424 1314.517822 708.206543 76.675331 211.316666 71.566010 39.936203 147.725296 243.483841 88.609291 76.616051 25.243708 210.213181 297.317749 45.719189 121.984291 63.638783 70.290695 72.810158 128.591095 63.411827 184.005020 137.149246 65.647575 334.895050 79.623909 52.155956 44.077793 51.663883 1365.484985 68.069374 182.300034 69.304184 81.126122 59.766476 78.297935 76.425346 85.394554 53.146099 57.339863 66.271339 62.397793 29.697300 4.734281 169.250214 11.312307 77.950981 370.797455 56.814747 44.056847 45.058903 91.178665 182.748199 299.204681 49.374607 37.987225 156.966553 90.227455 51.223373 117.909836 35.161812 62.332939 94.710175 67.009254 66.843765 220.206177 131.511917 47.613274 101.273766 74.657112 244.733444 88.440819 55.142956 85.646736 189.565613 1588.081421 74.163055 55.383869 65.734306 105.802010 88.841309 111.914467 117.823639 41.162571 134.899078 37.747524 177.672516 267.910431 49.888863 92.486656 357.503937 62.191067 81.763321 210.373962 314.534241 53.569626 286.252045 58.767086 161.359467 44.213024 328.211456 76.720100 38.625511 49.571880 97.155121 77.319542 63.214687 55.572994 74.467331 63.712299 56.528484 39.111191 98.321945 53.634811 38.530262 291.491791 173.028641 72.370087 78.775360 76.730476 62.183567 68.661041 84.336800 37.303291 288.852997 135.120682 195.979630 95.003784 228.119019 78.882393 245.892120 70.272285 64.206955 232.670395 51.094090 133.251053 293.814301 65.977051 52.448067 87.053497 84.371986 78.945442 46.210403 54.862679 1527.149414 41.178627 354.982941 3766.885254 216.027405 51.439453 39.945370 111.282814 81.004814 226.551193 210.520996 67.173119 79.919228 109.185570 245.198990 57.114140 58.815815 67.651192 86.832016 284.395020 66.166573 171.282471 52.262169 144.999908 99.470734 47.322559 38.986359 151.287964 145.636200 62.009140 93.057884 61.252457 52.840530 379.306183 69.195343 195.206635 62.303726 277.235901 325.907318 100.692955 207.073792 41.899258 55.985752 283.220764 141.416260 71.974899 237.493347 89.514618 54.590431 71.080627 91.845291 57.811489 312.006104 197.178726 94.608414 64.683594 50.328087 87.691513 80.387184 50.262634 117.613838 36.181305 90.709320 62.511578 42.336094 56.854378 54.259930 50.201504 124.416351 95.015213 82.280853 89.023972 200.381012 78.723717 97.372673 206.519119 82.305885 59.101917 81.225624 72.443672 32.562126 267.351715 38.608356 210.983337 60.125999 60.295609 68.783928 103.458084 114.445389 134.971176 108.178719 66.574478 96.381691 68.648224 107.142441 62.791588 51.585274 310.973541 56.506752 78.685410 304.245453 73.424881 80.310455 296.951233 53.452248 43.825829 71.458389 234.518173 61.094234 63.922245 56.246704 103.648476 85.073395 46.523083 76.181122 42.398350 70.643234 42.029091 188.893265 52.707821 77.597046 94.846649 218.222870 106.683708 85.884476 74.673401 171.786041 75.740486 390.935974 73.385437 461.855469 45.956108 344.030823 72.939980 56.884853 202.493210 217.068481 878.540405 48.903965 73.694183 85.630753 41.486225 63.415310 80.079826 72.436684 27.942997 263.247437 54.598152 277.859497 186.157852 49.999695 40.209797 67.644943 59.787888 64.895386 202.528412 51.183891 272.490051 241.085342 45.373123 48.388985 113.987297 87.466003 235.327332 51.823792 50.266697 53.695858 351.857758 52.849411 60.955215 171.800049 32.893848 109.943527 81.967079 78.208862 42.652950 46.558197 62.503174 89.466850 61.674244 65.157501 56.561520 49.189350 206.525894 35.421597 43.451298 266.788025 286.850128 53.417149 76.406387 71.986717 50.384262 236.109634 61.602200 282.133942 60.742466 109.853317 58.893440 49.411255 322.549988 78.112892 304.963318 107.311417 134.061935 197.392044 65.845795 120.704582 59.519512 110.886093 173.836487 80.271332 64.774597 283.960144 338.274231 113.571655 304.421509 57.066315 69.389984 52.021984 61.422073 44.029263 143.447159 152.744492 293.248566 319.474182 68.113876 199.645554 31.483387 225.421112 29.471960 70.618057 98.704704 26.799389 225.106003 48.165836 152.306229 47.375900 36.980129 173.542496 48.200031 268.252472 86.847450 83.526360 267.001801 66.327370 268.469452 246.159271 90.544930 57.366787 53.372795 83.295303 317.815399 244.327118 49.551994 357.043457 315.694977 86.017242 47.679680 48.580040 129.886688 188.299850 45.596722 98.116966 134.124374 145.762711 258.653412 65.106369 229.213165 65.192139 384.503876 79.755127 77.157288 49.497028 61.891994 40.718704 352.670380 97.952156 48.325191 306.808960 290.943298 37.794350 258.169128 104.900352 69.966087 290.347534 108.447746 70.968834 256.771454 272.893280 54.186909 60.966965 93.868767 31.882044 117.185997 35.700470 71.302643 35.606369 52.522217 66.013504 203.377670 25.526169 231.743698 91.154999 43.052750 108.216873 61.233067 78.394562 66.662613 80.036575 39.173901 84.336586 235.361084 51.013950 52.235146 66.117424 59.229290 30.444338 91.082214 30.243092 68.250504 185.587479 61.721672 39.007420 64.828247 111.218201 252.782257 59.888039 44.015121 157.106308 69.242081 228.828018 99.188705 82.139496 47.764679 53.547813 106.653519 249.278320 62.480381 70.174484 184.342636 259.096771 85.115288 172.405289 102.954414 
Conv_311_param_0 452.708435 266.433716 562.746887 615.311035 370.784821 379.565948 431.568481 409.003265 368.195160 260.934753 450.083252 414.998932 375.978882 495.282135 419.998169 300.337311 370.463257 409.927826 368.757111 350.397003 443.053986 298.129333 458.731140 331.599304 384.493225 419.094788 385.627533 357.955872 524.747498 357.587189 421.904022 418.853729 470.664246 570.482117 416.553955 356.132507 389.150787 253.806839 435.993744 307.439362 550.126160 320.513733 289.629547 564.914429 348.574585 429.735626 494.560120 364.530243 299.374878 355.893219 426.408081 387.552948 631.104980 378.753571 335.172546 329.139008 417.786224 693.681213 295.017151 385.471649 377.087280 330.951996 463.743103 409.137604 436.368958 490.677429 332.253815 316.917786 461.648224 345.169067 379.907227 365.330750 406.649628 414.441956 357.354309 504.348846 386.700867 310.388031 495.583557 436.042023 313.641693 341.673523 317.865051 318.266876 292.799194 391.613434 389.113129 339.365143 364.422028 588.506287 320.594574 447.970673 501.359924 390.244202 296.835114 299.361938 
Conv_327_param_0 1778.047607 1202.485840 1838.443726 1676.174316 1725.517456 1994.077515 3441.139893 1383.473389 2907.962646 2063.548340 1818.114746 1587.287354 1397.224365 2640.815674 2245.103027 2212.165771 1501.321289 1981.384155 2101.514404 1229.443359 1668.369873 1678.090576 1856.753784 1667.985718 1927.239380 134406.671875 2081.198975 1651.029175 2301.177002 2937.626709 1642.769531 1867.803101 2577.256592 2111.097656 1500.779297 2550.098389 1744.632568 1443.133911 2514.476318 1783.020508 1835.361206 4970.885254 1558.139404 1598.679199 1560.372437 1138.463013 1346.279419 2003.502319 2054.535156 1527.097046 2266.799072 2405.572510 1869.952148 1397.679565 1833.401367 2552.061035 1564.916382 1659.267944 1433.739868 2221.291992 2100.351318 1741.908936 2044.859619 2674.479492 1391.751099 1886.666626 1727.022339 1806.823364 1548.463135 2008.725342 2056.496582 2179.739014 1727.501221 1907.006836 1804.678223 3913.441406 1484.318604 2534.304932 1804.057617 2079.755371 2187.446289 4150.357422 1609.810425 2700.693359 1960.391479 1415.877686 1320.499512 1636.354980 1653.183838 1798.666870 1959.362671 1902.828003 1906.547485 2126.293213 1726.241577 3124.803955 1527.464722 2133.128662 1855.227051 1619.192139 2186.123779 2330.263428 1657.903931 1660.004150 2592.038818 1219.856812 3125.427979 2250.828125 2164.668213 2056.641602 1837.964233 1324.603760 1698.742188 1682.221680 1895.916992 1678.527466 2523.006592 2315.910400 2306.798096 1888.764282 2485.859131 1907.390747 60883.589844 1930.141724 932.132385 1605.845215 2323.541748 1288.863159 2105.318115 2174.457031 1966.772949 1754.325562 64894.066406 2177.997559 2078.002441 2248.177734 1883.139038 2277.806885 2194.157471 1638.587524 1618.413940 3057.873779 2146.381592 2042.032715 1742.859741 1863.079712 2039.973145 4656.066895 2887.930664 1569.363525 2241.107910 3851.235107 2409.625732 1913.949463 2525.298828 1967.766724 1992.197632 2101.185059 4275.709473 2019.544678 2146.848389 2449.236084 2330.183105 1723.689453 4079.512207 1451.840332 1742.196533 2715.196533 2999.834961 1706.988892 2646.064453 1546.519775 1174.307251 2184.863770 1807.574097 2352.838623 1515.280518 1553.270264 2027.990479 1848.650391 1715.119263 1670.537598 2044.631592 1144.466675 1889.738281 2236.411133 2011.647827 2126.624023 2372.292725 1606.574829 1981.278687 1838.390015 2458.569336 1903.592773 1455.296387 2848.361572 1558.010254 1158.396362 1765.696899 6089.637695 2726.255859 1726.657227 1655.098022 720.308350 2213.855469 2729.880371 1854.111450 1564.711060 2236.822510 2128.156006 1368.783936 1553.674927 1855.645264 1883.848999 1120.915039 1148.328125 1887.731812 2325.961182 2595.340088 1270.711304 2116.451904 2243.394043 2088.579346 2490.365967 2122.845459 5594.183105 1735.185059 1370.508789 1206.447266 1655.329468 1892.390381 3282.187012 1550.874268 1368.623047 1791.372314 1687.615234 2057.184814 1768.714844 1204.709595 2288.906494 2748.339844 2585.241211 1550.915161 2230.721924 1580.995239 1951.686035 1892.587891 2366.305664 1529.712524 1962.611450 1527.019775 2145.507812 2010.712891 1645.851562 2599.620605 1887.970947 2430.092773 1433.112915 1965.351318 3192.630371 2272.073486 1945.174072 1705.733398 1936.362915 2098.781494 2759.243408 1272.920532 2125.907959 1820.802246 1994.401978 1620.323975 2365.234863 2141.698486 2026.521973 2371.063965 1649.596802 2041.730103 2204.923340 2110.724121 2429.983154 139847.125000 78763.906250 1849.783569 2257.043945 2212.500732 2749.684326 1162.330322 1943.750610 1297.839722 3186.692383 1797.010498 1872.599487 1506.838135 1698.096558 3093.333252 1822.197632 1430.642090 1704.569702 2233.717285 1894.179688 2233.610596 2799.763916 1716.863525 1278.856934 2115.934814 1985.455688 1193.007080 1998.160034 3042.669678 1937.056274 1540.403198 1692.008057 2237.646973 1900.638184 1923.853027 2008.530029 1484.921631 2595.591309 2384.120850 1550.326050 2353.497070 3407.487305 1969.653320 1182.003906 2081.121826 2659.510742 2134.806152 2075.805176 1985.106079 2152.256104 2086.680420 1784.137085 1889.936279 1754.020996 1851.322266 1637.603394 3255.160889 1335.629395 2005.168579 1868.941895 2497.481201 1958.310425 1681.997925 1853.110474 1501.776978 2409.683594 2177.579834 1579.158081 1615.822754 1455.427246 1794.678711 2040.033447 1888.662354 5442.786621 1501.420166 1862.781372 2374.676270 1425.625244 1368.118164 1812.167114 2151.438721 1953.169922 2184.367920 1350.954834 1426.730591 2129.075195 2482.618652 2044.579468 2093.463135 1528.623291 2255.754883 1856.082153 2104.737549 2898.248779 1656.294312 1670.303711 1796.699219 1982.489136 2045.966309 1576.595093 1833.611206 1363.965210 1849.275757 2005.864380 1380.063232 1785.723755 1275.457642 1958.868774 2422.416992 1971.751465 2150.132324 1660.332397 1937.875000 1805.138062 2123.370850 1233.895874 4532.224121 2475.168945 2312.599609 2850.559570 1690.465698 1561.783569 4399.826172 2929.985352 3968.748535 3228.145020 1753.326904 1941.514771 2338.834229 2276.469727 2302.800781 2480.411865 2467.953613 2121.078125 1036.051392 1692.809448 2424.797363 1663.670898 2598.106934 1474.035400 1673.242188 2245.147461 2283.766846 1375.542725 2283.018555 1822.022217 2045.384521 1604.195435 2749.282959 2641.912598 1753.854248 1616.442993 2267.828369 1485.566040 2106.910400 1611.636597 1393.935547 2337.248291 1649.527832 1520.932739 2409.695068 3839.791260 1989.722656 2651.350342 1958.218872 2854.819824 2277.242432 2545.459229 2326.837891 1288.741821 1230.572510 2212.339111 1882.785278 1635.734375 1950.625366 1684.227417 1830.550049 1697.856079 1727.923096 1963.381836 1739.324463 1713.753662 1764.751587 1475.892822 1910.743774 4372.332520 3090.999756 2289.792969 1542.806519 2544.562256 3273.222168 1347.973511 2172.737305 1514.821045 1368.252563 1071.927979 1784.431519 1257.941406 2586.347656 2243.809570 2296.710693 1258.836182 2175.547119 2268.720947 1370.751099 1712.799927 1343.595093 1651.994263 1766.433472 1703.077881 1583.360718 1416.328125 1612.537476 2086.210449 957.357422 2215.445801 2217.153320 2134.098877 1671.033325 2205.330811 2614.908447 1855.904907 1993.988403 827.888611 1986.468018 2370.337158 1573.312378 2253.184570 1476.476074 2434.579346 2440.123779 1341.571167 1149.254883 1594.668701 1586.428589 2074.209961 1418.019287 1664.311279 2048.042725 1808.462036 2019.155640 2148.878906 2228.871582 1802.105713 2145.684570 1818.618896 2041.017090 1631.882568 1909.479370 2319.227539 2336.543945 2225.992920 1587.930420 1645.106445 127282.593750 2708.718994 2312.697266 2327.807861 2119.396240 1729.397583 1950.534546 2092.099854 1468.302246 2014.988647 59393.484375 2439.254150 1253.785522 2255.377441 2402.508545 2066.659912 1588.054932 1775.157715 1952.528687 2556.795654 1748.352417 1141.320190 1728.335449 1520.201782 1638.543945 1587.521729 1546.266602 2162.645020 2552.709473 2101.398438 1005.949036 2069.040039 2004.206665 2161.271240 2599.104736 2021.823120 2498.348389 2110.590820 1736.937500 2789.974121 1581.736084 1903.766357 
Conv_331_param_0 136.196030 68.439583 83.085419 334.199860 98.071724 197.024918 42.018948 252.235046 74.143600 32.984032 229.314529 102.464371 76.009109 30.149803 200.070938 66.969780 62.532780 66.271820 358.962250 94.838852 102.680412 58.313255 53.169071 54.442509 97.645508 2865.816162 67.817528 100.227798 55.136490 71.743279 275.135406 60.734528 94.155304 55.365108 300.183960 56.218822 52.167900 46.034374 53.525898 164.285980 45.881214 89.278984 47.157360 76.676041 28.914654 95.455559 87.770264 113.738022 121.141884 130.077560 41.587185 51.635799 119.840981 336.908264 104.238220 41.744102 130.899826 73.537331 451.589874 70.018021 292.060120 73.099785 66.718552 35.100685 76.044418 71.453880 86.024956 95.268242 225.444550 82.541328 58.685410 121.090210 101.783867 85.357506 290.362823 30.933716 233.283905 79.817909 120.538971 20.601603 89.096779 108.863190 55.935432 37.422367 92.147644 247.216080 355.794891 98.223251 304.906555 136.219788 53.341110 109.503029 103.504868 86.264816 55.045361 48.273647 117.229942 69.617592 127.859024 388.992432 76.901321 54.824669 70.689339 401.007233 106.266785 219.842743 171.008530 302.010651 43.286652 47.251190 49.296513 265.818878 117.561020 186.656906 51.533070 66.169907 277.480499 324.451477 65.148300 68.003395 60.591179 83.789085 1247.938354 254.742706 95.794891 48.722988 67.431374 62.553516 40.261799 320.047974 55.582668 231.748413 940.033142 50.947517 56.533360 56.963169 77.897865 56.088806 66.722031 61.964302 43.102470 46.245808 39.226658 39.914627 50.625458 28.158936 179.661774 46.696930 53.444569 141.238403 222.871323 33.668243 85.076950 402.759094 63.232098 316.711670 227.062103 143.197174 41.107693 53.852581 248.501251 200.149963 99.759323 47.783710 42.633446 306.146057 109.258011 77.483810 58.037205 73.946564 64.040642 363.625488 532.259033 59.444538 233.113388 27.503977 293.103821 271.013611 289.151611 88.271568 114.636391 47.108212 96.902649 337.219330 328.934662 52.092842 51.727821 59.798794 36.761669 52.894096 205.609787 53.384644 39.806595 71.158943 281.589813 68.127190 66.839577 40.284889 81.055534 34.301777 58.547459 54.936668 295.365784 19.083538 49.963753 62.850548 109.818588 379.410309 71.245155 60.986809 45.039913 395.472809 368.171112 78.081100 62.210335 205.692154 47.737797 103.751991 62.293278 256.080017 306.719391 60.043308 389.945984 92.206825 398.907959 13.950804 113.273087 236.185852 62.619442 60.459740 184.905258 42.132381 126.230873 326.886658 135.137482 220.599854 74.367554 76.041565 83.782364 51.720684 100.485069 64.056183 43.656525 316.183075 99.163254 95.059685 115.737305 59.908337 105.778305 255.549225 72.843292 86.143608 126.329216 133.625275 74.162483 53.696758 68.346863 47.945328 100.260147 35.244835 45.750328 84.855255 43.227333 228.812805 50.707569 349.538971 181.500687 291.010437 279.012451 113.244118 293.820587 63.386642 50.215763 186.404373 314.756897 58.702328 74.619843 104.768204 66.343163 72.393082 4027.522461 795.780212 170.221222 194.063522 222.464539 98.190315 303.408142 155.077438 69.820679 56.142471 268.142395 171.229477 36.819195 314.061707 40.905643 71.096146 55.656662 68.195587 210.312271 50.689358 67.311165 59.101585 300.186798 48.681095 63.785667 81.781349 90.290604 258.385101 57.018917 73.705994 252.165176 52.834908 45.591232 67.776230 292.773315 68.399757 245.171600 49.505775 72.680145 66.961884 67.605659 221.478134 59.189507 67.798820 70.336349 69.374977 171.705215 276.076447 279.050507 73.629906 213.618042 133.073608 31.318048 81.674706 226.439468 380.196381 51.347885 220.222916 62.007282 94.098831 36.405483 74.631439 61.885899 269.720459 321.154572 48.645248 66.852470 93.728226 254.701172 312.095490 274.003693 109.845879 52.052677 62.525646 83.787003 72.681137 108.225876 68.726494 297.466431 146.604553 25.941879 114.893394 54.684525 128.043518 101.715355 75.967133 160.908676 156.475128 65.920738 167.743546 69.665207 78.456390 43.197495 74.034721 108.398163 190.710236 71.253242 82.726234 102.692856 104.076241 54.598141 86.800888 66.326210 59.713326 242.230469 147.954849 354.169098 54.463417 122.692558 130.280945 108.452057 81.909569 59.671291 333.676056 72.074921 379.514404 149.161652 97.781113 48.327503 37.843876 301.288788 54.064831 39.118214 48.011936 72.310638 91.088699 160.806290 59.378082 109.231194 55.948872 95.261078 322.399811 69.680534 44.028313 380.688995 49.092808 39.767990 114.659180 145.523819 127.160019 44.702545 54.908501 88.074127 277.825623 71.494408 103.535988 53.874847 87.465065 77.357338 74.652473 320.034973 54.493774 95.002319 261.193481 75.274010 64.549683 96.055084 94.799927 84.630592 118.503159 236.985199 40.648449 60.157444 41.790691 100.842331 56.819614 199.072784 66.077934 37.728184 283.609070 142.516129 68.125435 118.101852 230.985779 87.143425 85.844795 412.790802 212.508362 94.979515 59.940838 58.298080 74.978813 83.528534 59.919052 93.375122 64.215225 44.513355 125.158051 81.313217 89.342659 54.667633 170.416794 251.522552 64.097672 97.681877 64.018402 72.840630 181.215317 63.044029 54.895962 51.294994 342.201965 116.406006 64.521698 420.687439 92.404785 87.392967 63.405369 90.647285 59.188797 33.543610 280.966125 195.697937 38.500935 70.116234 94.690094 60.050301 113.616615 227.504700 60.480938 41.160233 318.453461 91.047134 166.781158 35.397022 102.528824 88.965675 57.670143 64.034554 71.041397 47.047939 149.363785 176.952499 58.305546 65.704216 56.893513 96.153893 85.651054 75.327667 77.856445 459.454346 55.949257 44.679138 109.799271 53.413860 49.534336 376.731384 92.993317 67.525925 114.219498 48.434673 56.508701 256.843475 130.080933 2323.694092 69.807198 293.146606 47.421474 81.129066 238.304764 64.533920 47.486855 284.405823 122.652924 2241.656494 84.107956 311.926331 93.230057 204.739441 116.004593 150.732117 108.828491 150.995422 70.736313 97.672203 105.203819 407.203735 424.379486 123.100517 108.317917 53.220245 326.021851 67.946320 85.392082 84.871529 45.026684 49.082790 64.958885 54.326305 53.295933 62.860432 121.889641 324.871796 218.543671 87.234192 190.884689 
Conv_335_param_0 443.812164 194.585602 283.904907 477.669983 296.132355 228.635071 324.651978 338.329742 371.360535 249.340256 340.648773 380.264069 359.631073 464.208984 300.118744 201.429352 327.042816 347.189270 248.469788 175.756088 344.920074 236.996613 394.689484 298.285522 170.396561 298.831451 363.117798 312.923523 440.099304 424.979431 328.330750 279.173676 115.627380 353.865601 319.942993 246.878510 412.670013 281.276855 402.766602 282.830322 487.184143 283.408997 298.649750 384.225616 355.102631 334.342285 432.196167 321.562347 276.140778 332.110687 436.309509 338.091309 478.324463 300.672272 125.347496 183.543121 418.989502 654.949646 248.824371 335.535065 344.008911 311.953033 278.241577 195.662888 364.827911 513.356689 356.080261 293.111115 389.819794 298.235962 178.076202 239.633896 363.763519 311.440948 329.847656 204.773880 104.801712 275.790802 469.772705 541.571472 267.654358 196.048935 189.679825 386.457794 321.591278 341.542297 123.011337 243.863419 397.204254 314.872070 223.793289 388.855103 310.752014 290.277405 145.382553 315.985596 
Conv_351_param_0 2180.981445 1074.267822 1090.914673 1191.948975 1686.323975 2523.586914 2123.447021 1335.279419 1077.311890 1711.048340 1770.725708 1720.141724 1582.238892 2236.476074 1651.925903 1653.922729 2528.648193 1952.253174 1614.334473 1077.657471 1739.058838 1443.478638 1320.448975 2059.682373 2171.955322 4910.566895 1726.363403 1395.459717 1441.781738 1750.220215 1605.303101 2138.725342 1222.429932 1136.149048 1176.671021 1942.287964 1543.285400 2020.636108 1238.709717 1396.283813 2479.300293 2165.047119 1750.080933 1357.044556 1506.379028 1650.408936 1627.062256 1698.366577 1585.185425 1650.930908 1862.801514 1579.777466 1698.294556 1685.792847 1784.235718 2051.075439 1470.121338 1771.029053 1086.528198 1964.129761 2214.967773 1107.047729 1972.434814 2008.312622 2592.695068 1615.349731 1428.690552 1319.665771 1636.736694 1565.054443 2239.407471 1365.687256 1431.502075 1789.999268 1645.322632 1764.450073 1573.267090 1080.795410 3997.943848 1892.019043 1611.382446 2115.618164 1499.668579 1426.418579 1546.551880 1585.450073 1824.899170 1268.459961 2359.631592 1984.573364 1868.891968 957.053528 915.823303 739.057495 1947.299927 1421.994507 2363.924805 3230.534668 1296.789551 1137.118408 1077.341431 1207.001953 1203.321167 1118.245361 1345.173950 1550.386230 1571.939819 1488.199463 1129.296997 1574.272827 1445.561890 1257.013672 1376.885132 2148.614990 1869.488403 1090.958862 1231.715454 1185.037842 1258.567871 1129.871582 1047.947510 2655.061279 1221.206543 2118.611328 1930.360352 2818.739990 936.917725 2538.823242 1779.156860 2333.384521 2141.012695 1643.177856 1189.692383 1676.517212 2735.864502 4212.425781 1501.901611 1278.121094 682.553528 2136.127930 1411.528198 1476.496948 4062.284180 1745.791504 1970.463379 1671.225708 1643.043457 4493.986816 1791.980225 1308.073486 1825.566284 2046.431396 1488.171631 1733.142578 1167.622314 1650.719482 1783.137451 948.017029 1289.780762 1560.648804 1873.570435 1317.103149 1672.372803 1988.435791 787.976868 1604.029297 2240.030029 1517.991943 1783.497192 1633.893555 1571.874023 1262.794312 1681.932861 1401.329590 1643.852905 1561.012939 1723.446167 1930.177856 1671.933838 2116.057861 3089.538330 1171.065796 1326.694336 1739.046631 1247.652466 1417.736206 1388.058594 1623.491455 977.246826 1964.771606 1385.125610 2460.896240 2132.229736 1976.727783 793.458374 2180.089844 2067.887695 2303.997803 5889.776367 1383.541504 1659.092285 1014.830750 1348.530273 908.797241 1180.056519 1751.942749 1239.762817 1873.141479 1588.544678 1323.537964 1142.184692 1694.646362 2306.675293 3743.307373 1164.661011 2243.161621 2125.444336 1247.270874 2000.324341 1659.359863 2691.805664 2128.622559 1764.321167 1549.461182 1304.477417 2270.459717 1092.566406 1611.820923 869.763794 2042.091553 1011.487000 2171.778564 2057.160645 1387.367432 1590.896851 2175.590576 1139.634521 1783.436157 3487.144775 1541.215332 1732.520264 1034.033691 1635.096802 1518.918701 1589.396240 1706.406006 2465.199707 1288.699463 2322.638184 2096.886230 2461.708984 2228.022949 908.491211 1902.521973 1594.645874 2874.949219 1739.013062 2749.804199 1833.517090 3361.204590 1749.596802 1943.304321 2484.481689 2015.460571 2628.242432 1717.678711 1308.695068 2825.031250 1324.760254 1317.218872 1245.772949 1634.979126 1117.467896 1707.774414 1278.104736 2168.591064 1409.707275 1795.182983 1946.375000 1421.898682 2104.828125 1406.968384 1099.443970 2263.703369 2459.677979 1923.149780 1290.147949 1198.697388 1611.658325 1633.772461 1200.496826 1774.835083 1536.999756 1558.150879 1731.195312 1767.234131 2469.812500 3374.541016 2301.668701 2517.899414 1517.840088 2249.465332 2441.312744 1824.584839 84407.421875 1094.420166 1165.594482 1324.931519 1800.566650 1438.138184 1510.588989 1097.276367 1867.859131 1767.248047 1743.529175 2748.165771 864.083618 1138.130981 1802.625610 2565.553711 1872.332520 1966.643433 1867.581299 2196.399170 1618.056152 1597.602051 1987.166870 1452.796997 1051.244995 1240.459839 1898.476685 1588.196167 1641.968750 3317.057129 3520.728271 2098.466553 1883.330688 1638.700684 1872.294312 1881.649658 1457.201416 1564.485840 1973.814575 1435.164917 1769.653198 1510.792969 1714.640747 1250.918701 1349.064087 1997.095459 2084.200195 1965.505737 3030.996582 1492.949951 1706.322144 1590.294800 1286.658936 2439.713867 1627.117188 1975.887695 2492.553711 1911.771118 1517.958862 1278.927246 1859.266724 1746.146118 1370.418823 2478.333496 1340.405518 1542.178711 4385.490234 1417.725220 1483.441772 1376.333740 1397.318481 2261.978760 1508.026855 1637.589355 1784.245605 1644.661011 1293.609497 1355.352661 1865.510010 1932.058838 1752.986084 1400.606567 1233.643677 1134.503296 1613.968018 1454.418091 1700.786987 2097.155273 1936.313354 1700.728516 2145.711914 1952.233887 1408.876587 1143.204590 878.208252 1937.432739 1602.397827 2294.467529 8690.226562 1470.593872 1514.316772 2548.275146 2012.220337 1407.765869 1795.579468 1692.646729 1669.045532 2786.815918 1839.541870 1483.136108 2071.405762 1889.210327 2282.151367 1375.947510 1272.934448 1722.674194 1112.660645 1446.643188 1645.877441 7416.225098 1502.784912 2247.903076 1792.595337 907.284424 1588.022705 2572.676758 1601.987427 2589.568115 4521.270508 1079.778809 2616.796143 1907.262939 1620.923950 1167.981689 2715.217773 2806.817139 1908.994873 1389.111206 1526.618774 1522.242676 2013.435913 2838.480469 1513.966675 2037.121338 1751.292603 1715.987671 1620.851562 1391.561523 1534.385132 1699.500854 1529.891357 6798.833496 2190.105713 1429.156616 1662.000366 1642.661621 2223.186523 1824.843262 2087.954590 949.507141 3931.179443 1909.316650 2233.098145 1936.721313 1674.767700 1677.184937 1206.328247 1736.447388 1594.810913 2122.932617 1234.967041 3171.587402 1599.001953 1013.946899 1968.476929 1682.844849 2484.099609 1679.140259 1950.392578 2189.596436 1832.614868 1631.950073 1447.082153 1490.419678 1474.554932 1561.446289 1614.145752 1204.436035 1553.951660 1355.568237 2131.043213 1146.534668 1780.467529 1590.168823 1085.161255 1101.746460 2358.019531 1858.232056 1297.808960 1201.379272 1577.612793 1856.254150 1757.894165 2053.455566 11104.617188 1430.946655 1852.060669 1679.323853 2012.973633 1740.625366 2063.983398 1423.937988 1354.227783 1450.522705 1569.595337 1443.827026 1306.108643 1484.508545 1091.784058 1184.417725 1258.514648 1901.843994 1815.931152 1250.957886 2031.841309 2152.922363 2045.417969 2217.376709 1032.132568 1168.344238 1234.937500 1605.914062 1381.468384 2196.458740 1537.630127 2339.651855 1337.901733 2082.412842 1186.632935 69880.906250 1684.841064 2521.934082 1238.393433 3145.789551 669.597839 1633.328979 1549.277344 1740.257446 1674.398071 1977.263550 2130.673096 1618.546997 1929.100952 1351.744629 1792.596191 1966.106934 1450.099487 1163.266113 1222.217285 3210.765137 1898.228027 1136.108276 3166.500732 2429.942871 1760.594849 1984.533813 1596.835938 1344.854126 1507.473877 1563.849731 1616.739502 1647.679932 
